#include "td3_agent.h"

// We need to keep the data array aligned on some architectures.
#ifdef __has_attribute
#define HAVE_ATTRIBUTE(x) __has_attribute(x)
#else
#define HAVE_ATTRIBUTE(x) 0
#endif
#if HAVE_ATTRIBUTE(aligned) || (defined(__GNUC__) && !defined(__clang__))
#define DATA_ALIGN_ATTRIBUTE __attribute__((aligned(4)))
#else
#define DATA_ALIGN_ATTRIBUTE
#endif

const unsigned char td3_agent_tflite[] = {
  0x20, 0x00, 0x00, 0x00, 0x54, 0x46, 0x4c, 0x33, 0x00, 0x00, 0x00, 0x00,
  0x00, 0x00, 0x12, 0x00, 0x1c, 0x00, 0x04, 0x00, 0x08, 0x00, 0x0c, 0x00,
  0x10, 0x00, 0x14, 0x00, 0x00, 0x00, 0x18, 0x00, 0x12, 0x00, 0x00, 0x00,
  0x03, 0x00, 0x00, 0x00, 0xb0, 0x1a, 0x00, 0x00, 0x08, 0x16, 0x00, 0x00,
  0xf0, 0x15, 0x00, 0x00, 0x34, 0x00, 0x00, 0x00, 0x04, 0x00, 0x00, 0x00,
  0x01, 0x00, 0x00, 0x00, 0x04, 0x00, 0x00, 0x00, 0xb0, 0xe5, 0xff, 0xff,
  0x08, 0x00, 0x00, 0x00, 0x0c, 0x00, 0x00, 0x00, 0x13, 0x00, 0x00, 0x00,
  0x6d, 0x69, 0x6e, 0x5f, 0x72, 0x75, 0x6e, 0x74, 0x69, 0x6d, 0x65, 0x5f,
  0x76, 0x65, 0x72, 0x73, 0x69, 0x6f, 0x6e, 0x00, 0x0d, 0x00, 0x00, 0x00,
  0xb0, 0x15, 0x00, 0x00, 0x9c, 0x15, 0x00, 0x00, 0x84, 0x14, 0x00, 0x00,
  0x74, 0x04, 0x00, 0x00, 0x64, 0x03, 0x00, 0x00, 0x54, 0x02, 0x00, 0x00,
  0x44, 0x00, 0x00, 0x00, 0x3c, 0x00, 0x00, 0x00, 0x34, 0x00, 0x00, 0x00,
  0x2c, 0x00, 0x00, 0x00, 0x24, 0x00, 0x00, 0x00, 0x1c, 0x00, 0x00, 0x00,
  0x04, 0x00, 0x00, 0x00, 0x9a, 0xea, 0xff, 0xff, 0x04, 0x00, 0x00, 0x00,
  0x05, 0x00, 0x00, 0x00, 0x31, 0x2e, 0x35, 0x2e, 0x30, 0x00, 0x00, 0x00,
  0x6c, 0xe6, 0xff, 0xff, 0x70, 0xe6, 0xff, 0xff, 0x74, 0xe6, 0xff, 0xff,
  0x78, 0xe6, 0xff, 0xff, 0x7c, 0xe6, 0xff, 0xff, 0xc2, 0xea, 0xff, 0xff,
  0x04, 0x00, 0x00, 0x00, 0x00, 0x02, 0x00, 0x00, 0x88, 0x1c, 0x0c, 0xc0,
  0xad, 0x64, 0x02, 0xc0, 0xb8, 0xf6, 0x60, 0xbe, 0x4f, 0xfb, 0x6e, 0xbe,
  0xf0, 0x79, 0xf2, 0xbc, 0x0f, 0xb6, 0x6f, 0xbe, 0xde, 0x09, 0x12, 0x40,
  0x68, 0x14, 0xd5, 0x3f, 0x8f, 0xac, 0x8e, 0xbe, 0xba, 0x67, 0x12, 0xbe,
  0x5b, 0x58, 0x3b, 0xbe, 0x90, 0x55, 0x01, 0xbe, 0x63, 0x9e, 0x19, 0x40,
  0x70, 0x9e, 0x04, 0x40, 0x3c, 0x41, 0x83, 0xbe, 0x1d, 0xbb, 0x5e, 0xbe,
  0xa0, 0xe1, 0x13, 0x3d, 0x90, 0x2b, 0x7f, 0xbe, 0x4c, 0x93, 0x56, 0xbd,
  0xb0, 0x4b, 0xa0, 0xbc, 0x3c, 0x68, 0x88, 0xbe, 0xf2, 0x01, 0xca, 0xbd,
  0x99, 0xa6, 0xe9, 0x3f, 0x62, 0x48, 0xff, 0xbf, 0xeb, 0xba, 0xfb, 0xbf,
  0x70, 0xc8, 0x17, 0xc0, 0xe0, 0x4e, 0x03, 0x3c, 0xa2, 0xef, 0xf1, 0xbd,
  0x7e, 0x30, 0x13, 0xc0, 0x98, 0xe7, 0x04, 0xc0, 0x3e, 0x8e, 0x09, 0xc0,
  0xb1, 0x52, 0x12, 0x40, 0xd0, 0x47, 0x83, 0xbe, 0x0a, 0x0e, 0x94, 0xbe,
  0x61, 0x6f, 0xfd, 0xbf, 0xb4, 0x04, 0x0b, 0xc0, 0x40, 0xe1, 0xef, 0xbf,
  0xcf, 0xc9, 0x0b, 0xc0, 0x50, 0xc7, 0x62, 0xbe, 0x77, 0x75, 0x09, 0xc0,
  0x3e, 0xa8, 0xc7, 0xbd, 0xaa, 0x4d, 0x4c, 0xbe, 0x82, 0xa6, 0xf7, 0xbf,
  0x9b, 0x33, 0xf0, 0xbf, 0xe7, 0x3b, 0xf8, 0xbf, 0xa7, 0x12, 0x07, 0xc0,
  0x23, 0x9d, 0x1a, 0x40, 0xbe, 0x5e, 0xfc, 0x3f, 0xef, 0xa8, 0x32, 0xbe,
  0xe2, 0xd9, 0x52, 0xbe, 0x68, 0x77, 0xf0, 0xbf, 0x37, 0x0f, 0x17, 0xc0,
  0xbc, 0x4e, 0x11, 0x40, 0xe7, 0xf6, 0xec, 0x3f, 0x87, 0x12, 0x70, 0xbe,
  0xa8, 0x5e, 0x36, 0xbe, 0xe8, 0x83, 0xf2, 0x3f, 0xa1, 0x15, 0x14, 0x40,
  0x03, 0x15, 0x11, 0xc0, 0x08, 0x60, 0xf4, 0xbf, 0xa8, 0x83, 0x0d, 0xc0,
  0x81, 0xef, 0x00, 0xc0, 0x53, 0x9d, 0x0a, 0xc0, 0x80, 0xcf, 0xf7, 0xbf,
  0xda, 0xc0, 0x08, 0xc0, 0xe1, 0x05, 0x07, 0xc0, 0x8c, 0x66, 0xed, 0x3f,
  0xee, 0x32, 0x17, 0x40, 0xf3, 0x58, 0x05, 0x40, 0x0e, 0x9a, 0x1b, 0x40,
  0x04, 0xf8, 0x19, 0xc0, 0x9c, 0xe3, 0x02, 0xc0, 0x49, 0xe0, 0x1b, 0xc0,
  0x4d, 0xa6, 0xfc, 0xbf, 0xd5, 0x87, 0x06, 0xc0, 0xfa, 0xec, 0x12, 0xc0,
  0x58, 0xe9, 0x1c, 0x40, 0x24, 0xaa, 0x0a, 0x40, 0xd1, 0xf9, 0x01, 0xc0,
  0xdc, 0xfc, 0x0d, 0xc0, 0x4a, 0xe4, 0xdf, 0xbd, 0x30, 0x07, 0x42, 0xbe,
  0x81, 0xf9, 0x1b, 0x40, 0x60, 0x4f, 0xfa, 0x3f, 0x94, 0xc8, 0x00, 0xc0,
  0xe8, 0x50, 0x19, 0xc0, 0xd8, 0x1a, 0x60, 0xbe, 0x70, 0xd0, 0x09, 0xbd,
  0x50, 0x4c, 0x19, 0x40, 0x6b, 0xf7, 0x09, 0x40, 0xb8, 0x1b, 0x84, 0xbe,
  0x7a, 0xa6, 0xcb, 0xbd, 0x1b, 0xe3, 0x01, 0x40, 0x7f, 0xd9, 0x0a, 0x40,
  0x83, 0x59, 0x1b, 0x40, 0x3c, 0x94, 0x08, 0x40, 0x15, 0xf2, 0xe9, 0xbf,
  0x73, 0xe7, 0xfb, 0xbf, 0x1a, 0xf0, 0xfb, 0xbf, 0x38, 0x3f, 0xf2, 0xbf,
  0xb1, 0x28, 0x14, 0x40, 0xb5, 0x25, 0x03, 0x40, 0x06, 0xc9, 0x1b, 0x40,
  0x00, 0x0d, 0xf1, 0xbf, 0x23, 0xc3, 0x13, 0x40, 0x1a, 0x24, 0xfe, 0x3f,
  0x06, 0x1e, 0x0e, 0x40, 0x57, 0x00, 0x05, 0x40, 0xc1, 0x5f, 0x15, 0x40,
  0x31, 0xd7, 0x14, 0x40, 0xdc, 0x14, 0xf7, 0xbf, 0x00, 0x61, 0xff, 0xbf,
  0x32, 0xc0, 0x35, 0xbe, 0x68, 0x4e, 0x09, 0xbd, 0xc3, 0x14, 0x1a, 0x40,
  0x6d, 0xf2, 0x1a, 0x40, 0x1c, 0x7c, 0xf4, 0xbf, 0xa3, 0xfe, 0x10, 0xc0,
  0x96, 0xae, 0xc4, 0xbd, 0x6e, 0xd6, 0x5b, 0xbe, 0xa4, 0x69, 0x16, 0xc0,
  0x34, 0x8f, 0xf7, 0xbf, 0x61, 0xb8, 0x02, 0xc0, 0xd8, 0xf9, 0x02, 0xc0,
  0x6f, 0xc4, 0x22, 0xbe, 0xcb, 0xad, 0x0b, 0xbe, 0xdf, 0xff, 0x0f, 0xbe,
  0xa2, 0x1f, 0x28, 0xbe, 0xce, 0xec, 0xff, 0xff, 0x04, 0x00, 0x00, 0x00,
  0x00, 0x01, 0x00, 0x00, 0xf2, 0x10, 0x0a, 0xc0, 0x00, 0x00, 0x00, 0x00,
  0x00, 0x00, 0x00, 0x00, 0x0e, 0xe6, 0x09, 0x40, 0x00, 0x00, 0x00, 0x00,
  0x00, 0x00, 0x00, 0x00, 0xfe, 0x0f, 0x0a, 0x40, 0x00, 0x00, 0x00, 0x00,
  0x00, 0x00, 0x00, 0x00, 0x00, 0x00, 0x00, 0x00, 0x00, 0x00, 0x00, 0x00,
  0x21, 0x05, 0x0a, 0xc0, 0xbb, 0x09, 0x0a, 0xc0, 0x00, 0x00, 0x00, 0x00,
  0x07, 0x11, 0x0a, 0xc0, 0x24, 0x0d, 0x0a, 0x40, 0x00, 0x00, 0x00, 0x00,
  0xf5, 0xe9, 0x09, 0xc0, 0xe2, 0xe7, 0x09, 0xc0, 0xf8, 0x0f, 0x0a, 0xc0,
  0x00, 0x00, 0x00, 0x00, 0xb5, 0x10, 0x0a, 0xc0, 0x22, 0x11, 0x0a, 0xc0,
  0xbd, 0xf1, 0x09, 0x40, 0x00, 0x00, 0x00, 0x00, 0xae, 0x09, 0x0a, 0xc0,
  0xd7, 0x06, 0x0a, 0x40, 0x00, 0x00, 0x00, 0x00, 0xb6, 0xab, 0x09, 0xc0,
  0x24, 0x0f, 0x0a, 0xc0, 0x9b, 0x11, 0x0a, 0xc0, 0x8a, 0x10, 0x0a, 0xc0,
  0xdc, 0x0f, 0x0a, 0xc0, 0x9d, 0x10, 0x0a, 0x40, 0x7c, 0x0f, 0x0a, 0x40,
  0x53, 0x08, 0x0a, 0xc0, 0xa5, 0x10, 0x0a, 0xc0, 0xb8, 0x09, 0x0a, 0xc0,
  0xe9, 0x10, 0x0a, 0x40, 0x2b, 0xf3, 0x09, 0xc0, 0x00, 0x00, 0x00, 0x00,
  0xfc, 0x0c, 0x0a, 0x40, 0x2a, 0x0a, 0x0a, 0xc0, 0x00, 0x00, 0x00, 0x00,
  0xca, 0x10, 0x0a, 0x40, 0x00, 0x00, 0x00, 0x00, 0x0a, 0x0f, 0x0a, 0x40,
  0x1d, 0x11, 0x0a, 0x40, 0x5c, 0x67, 0x09, 0xc0, 0x90, 0x11, 0x0a, 0xc0,
  0xdc, 0x0e, 0x0a, 0x40, 0x35, 0x09, 0x0a, 0xc0, 0x55, 0x10, 0x0a, 0x40,
  0x4d, 0x10, 0x0a, 0x40, 0x88, 0x11, 0x0a, 0x40, 0x57, 0x11, 0x0a, 0xc0,
  0x00, 0x00, 0x00, 0x00, 0x19, 0x10, 0x0a, 0x40, 0xf3, 0x0a, 0x0a, 0xc0,
  0x00, 0x00, 0x00, 0x00, 0xdf, 0x10, 0x0a, 0xc0, 0xdf, 0x10, 0x0a, 0xc0,
  0x00, 0x00, 0x00, 0x00, 0x00, 0x00, 0x00, 0x00, 0xda, 0xed, 0xff, 0xff,
  0x04, 0x00, 0x00, 0x00, 0x00, 0x01, 0x00, 0x00, 0x00, 0x00, 0x00, 0x00,
  0x13, 0x11, 0x0a, 0xc0, 0xa1, 0x10, 0x0a, 0x40, 0x17, 0x11, 0x0a, 0xc0,
  0x00, 0x00, 0x00, 0x00, 0x8c, 0x11, 0x0a, 0x40, 0x5f, 0x11, 0x0a, 0x40,
  0x00, 0x00, 0x00, 0x00, 0xae, 0x11, 0x0a, 0x40, 0x88, 0x11, 0x0a, 0xc0,
  0x72, 0x11, 0x0a, 0x40, 0xb3, 0x11, 0x0a, 0xc0, 0x21, 0x11, 0x0a, 0xc0,
  0x2e, 0x11, 0x0a, 0x40, 0x99, 0x11, 0x0a, 0xc0, 0x0a, 0xfe, 0x09, 0xc0,
  0x00, 0x00, 0x00, 0x00, 0x98, 0x11, 0x0a, 0xc0, 0x75, 0x0d, 0x0a, 0xc0,
  0xc0, 0x10, 0x0a, 0x40, 0x68, 0x0e, 0x0a, 0xc0, 0x3a, 0x11, 0x0a, 0xc0,
  0xda, 0xd5, 0x09, 0xc0, 0x64, 0x11, 0x0a, 0x40, 0x1f, 0x11, 0x0a, 0x40,
  0x00, 0x00, 0x00, 0x00, 0x66, 0x11, 0x0a, 0x40, 0x00, 0x00, 0x00, 0x00,
  0x00, 0x00, 0x00, 0x00, 0x46, 0x10, 0x0a, 0x40, 0x00, 0x00, 0x00, 0x00,
  0x03, 0x11, 0x0a, 0x40, 0xc1, 0x10, 0x0a, 0x40, 0x00, 0x00, 0x00, 0x00,
  0x26, 0x11, 0x0a, 0x40, 0xc7, 0xf8, 0x09, 0xc0, 0xa8, 0x10, 0x0a, 0xc0,
  0x00, 0x00, 0x00, 0x00, 0x00, 0x00, 0x00, 0x00, 0x00, 0x00, 0x00, 0x00,
  0x96, 0x0f, 0x0a, 0xc0, 0xbf, 0x0e, 0x0a, 0xc0, 0x00, 0x00, 0x00, 0x00,
  0x00, 0x00, 0x00, 0x00, 0x04, 0x0e, 0x0a, 0x40, 0xc8, 0x03, 0x0a, 0xc0,
  0x34, 0x11, 0x0a, 0xc0, 0x00, 0x00, 0x00, 0x00, 0x00, 0x00, 0x00, 0x00,
  0x00, 0x00, 0x00, 0x00, 0xa7, 0x11, 0x0a, 0xc0, 0x00, 0x00, 0x00, 0x00,
  0x00, 0x00, 0x00, 0x00, 0x67, 0x11, 0x0a, 0xc0, 0x47, 0x11, 0x0a, 0xc0,
  0xa7, 0x11, 0x0a, 0xc0, 0x2c, 0x0d, 0x0a, 0x40, 0xa8, 0x11, 0x0a, 0xc0,
  0x00, 0x00, 0x00, 0x00, 0x8c, 0x0b, 0x0a, 0x40, 0x30, 0x0c, 0x0a, 0x40,
  0x55, 0x11, 0x0a, 0xc0, 0x65, 0x11, 0x0a, 0x40, 0x00, 0x00, 0x00, 0x00,
  0xe6, 0xee, 0xff, 0xff, 0x04, 0x00, 0x00, 0x00, 0x00, 0x10, 0x00, 0x00,
  0x07, 0xfa, 0x06, 0xfd, 0x00, 0xff, 0x04, 0x06, 0xfe, 0x00, 0xf5, 0x09,
  0x06, 0x03, 0xf7, 0xfa, 0xf8, 0xf7, 0xf9, 0x09, 0xfc, 0x03, 0xfd, 0xfa,
  0xf9, 0x0b, 0xf5, 0x0a, 0x06, 0xf5, 0x06, 0x04, 0x03, 0x02, 0xfd, 0xfe,
  0x02, 0x02, 0xf5, 0xf7, 0x03, 0x07, 0x00, 0xfb, 0xfa, 0x02, 0xff, 0xf8,
  0xf6, 0xf6, 0xf6, 0xfc, 0x00, 0xf6, 0xf6, 0x09, 0xfe, 0xfe, 0xf6, 0xfc,
  0xfa, 0xfe, 0x00, 0xfb, 0x93, 0xf8, 0x00, 0xf7, 0x02, 0x05, 0xf7, 0xf7,
  0x00, 0x06, 0x08, 0x8e, 0xf5, 0x09, 0x8d, 0x81, 0xf8, 0xfe, 0x89, 0x86,
  0x02, 0x92, 0x83, 0x09, 0x08, 0xf6, 0x05, 0xfe, 0x82, 0x96, 0x95, 0x8b,
  0x90, 0x8c, 0x95, 0x84, 0x94, 0x03, 0x86, 0xf9, 0x03, 0x0b, 0xfa, 0x04,
  0x95, 0x05, 0x87, 0x86, 0x00, 0x93, 0xfe, 0x86, 0x0a, 0xf5, 0x8f, 0x86,
  0xf7, 0x82, 0xfa, 0x0a, 0x91, 0x8a, 0xfd, 0x04, 0x73, 0x02, 0x0a, 0x6a,
  0xf9, 0x01, 0x72, 0xf8, 0xfc, 0x0b, 0xf6, 0x78, 0x65, 0xfa, 0x68, 0x70,
  0x06, 0x70, 0x69, 0xff, 0x08, 0x6e, 0x6e, 0x68, 0xff, 0x7a, 0x67, 0x00,
  0x7a, 0x70, 0x7b, 0x76, 0x6e, 0x6e, 0x77, 0x6b, 0x6b, 0x48, 0x7a, 0x67,
  0x02, 0x7e, 0x6d, 0xfd, 0x7f, 0x02, 0x00, 0x6f, 0x76, 0x6b, 0x6c, 0x77,
  0x7c, 0x6d, 0x7b, 0x6f, 0xfb, 0x7f, 0x6a, 0x07, 0x6e, 0x78, 0x05, 0x00,
  0x91, 0xf7, 0x09, 0x0a, 0xf9, 0xfc, 0x01, 0xfa, 0x06, 0xf8, 0x09, 0x97,
  0xfc, 0xfd, 0x83, 0x95, 0xf5, 0x07, 0x87, 0x8d, 0xfe, 0x84, 0x94, 0x06,
  0x08, 0x02, 0x07, 0xf7, 0x96, 0x89, 0x8a, 0x8b, 0x97, 0x96, 0x95, 0x94,
  0x89, 0xff, 0x8b, 0x09, 0x00, 0xf7, 0xf9, 0xf5, 0x86, 0x0a, 0x97, 0x83,
  0x0b, 0x84, 0x03, 0x8f, 0xfa, 0xff, 0x86, 0x83, 0xf5, 0x97, 0x07, 0x05,
  0x8a, 0x92, 0xf7, 0xfe, 0xf8, 0x00, 0xfc, 0xf9, 0x06, 0xfb, 0xf5, 0x01,
  0xf5, 0x0a, 0x03, 0xfd, 0xf5, 0xfa, 0x0a, 0x08, 0xfe, 0x01, 0xf8, 0xf9,
  0xfa, 0xf9, 0xfc, 0x09, 0xfd, 0x07, 0x06, 0xf6, 0xfa, 0xfa, 0xfc, 0xfb,
  0x0a, 0x04, 0xfe, 0xfd, 0x0a, 0xf9, 0xf7, 0xf7, 0x08, 0xfd, 0xf8, 0xf5,
  0x01, 0x0b, 0x0a, 0xfa, 0x0b, 0x06, 0x06, 0xf5, 0xff, 0x0b, 0x01, 0xf5,
  0x07, 0xf7, 0x0b, 0x00, 0x05, 0xf5, 0x06, 0xfc, 0x75, 0xf9, 0x08, 0x6c,
  0x08, 0xfb, 0x77, 0xf7, 0x07, 0xf5, 0x04, 0x6f, 0x66, 0xf5, 0x76, 0x7a,
  0x0b, 0x78, 0x74, 0x67, 0x02, 0x7d, 0x6d, 0x76, 0xfe, 0x6f, 0x72, 0xfb,
  0x6d, 0x79, 0x72, 0x74, 0x71, 0x7e, 0x77, 0x6f, 0x7a, 0x5d, 0x79, 0x6c,
  0xfb, 0x78, 0x65, 0x02, 0x7e, 0xfd, 0x69, 0x70, 0x79, 0x7a, 0x72, 0x79,
  0x78, 0x76, 0x7f, 0x74, 0x03, 0x6e, 0x6c, 0xfc, 0x6d, 0x6f, 0xfb, 0xf9,
  0x71, 0x05, 0x08, 0x63, 0x0b, 0x08, 0x76, 0x0a, 0xfd, 0x0b, 0xf7, 0x7a,
  0x69, 0x03, 0x6a, 0x6e, 0xfa, 0x69, 0x77, 0x7b, 0x03, 0x70, 0x79, 0x7d,
  0xfd, 0x6a, 0x6d, 0x01, 0x76, 0x7c, 0x6a, 0x7e, 0x7d, 0x6f, 0x7b, 0x6c,
  0x7d, 0x4c, 0x74, 0x74, 0x09, 0x7d, 0x66, 0x02, 0x7d, 0xfa, 0x6f, 0x7a,
  0x73, 0x6a, 0x6b, 0x73, 0x74, 0x74, 0x7e, 0x7f, 0xfb, 0x7b, 0x70, 0x0a,
  0x6d, 0x71, 0x0c, 0x08, 0x01, 0x01, 0xf7, 0xfa, 0x08, 0xff, 0x02, 0xf7,
  0x06, 0xfe, 0x06, 0x01, 0x05, 0x06, 0xf5, 0xf5, 0x06, 0xfc, 0x06, 0x07,
  0x00, 0x06, 0xf4, 0xf9, 0x02, 0xff, 0x0b, 0x01, 0x0b, 0x06, 0xf6, 0x02,
  0x05, 0xf5, 0xf7, 0xf9, 0x0b, 0x0a, 0x06, 0x06, 0x09, 0x04, 0x00, 0xff,
  0xf9, 0xfa, 0x0a, 0xf6, 0xf8, 0x01, 0x05, 0x02, 0x06, 0x03, 0x06, 0xfa,
  0x00, 0xf9, 0x05, 0x02, 0xff, 0xfa, 0xf7, 0x03, 0x7d, 0xfa, 0x00, 0x75,
  0xf8, 0x05, 0x77, 0xf7, 0xfe, 0x05, 0x03, 0x77, 0x7a, 0x00, 0x76, 0x71,
  0xfa, 0x7b, 0x6e, 0x6c, 0x01, 0x7c, 0x71, 0x69, 0x06, 0x7f, 0x70, 0xf9,
  0x7d, 0x78, 0x79, 0x7c, 0x77, 0x70, 0x70, 0x6f, 0x73, 0x5d, 0x71, 0x65,
  0xf5, 0x73, 0x68, 0x0a, 0x7e, 0x02, 0x71, 0x70, 0x6c, 0x6d, 0x69, 0x7b,
  0x74, 0x7a, 0x7d, 0x77, 0x08, 0x74, 0x75, 0xfa, 0x70, 0x76, 0xfa, 0xfc,
  0x8f, 0x07, 0x0b, 0xfd, 0x08, 0x0a, 0x83, 0xf9, 0x09, 0xfa, 0xfd, 0x86,
  0xfe, 0xfb, 0x96, 0x86, 0xf7, 0xf4, 0x92, 0x9a, 0x01, 0x87, 0x93, 0x85,
  0x00, 0x88, 0xff, 0x0b, 0x97, 0x93, 0x91, 0x95, 0x81, 0x82, 0x97, 0x90,
  0x97, 0x06, 0x87, 0x05, 0x0c, 0x86, 0x05, 0xf7, 0x95, 0xf6, 0x99, 0x91,
  0x01, 0x95, 0x86, 0x96, 0x8e, 0x8a, 0x8c, 0x84, 0xfa, 0x92, 0x91, 0x00,
  0x93, 0x85, 0xfc, 0x0a, 0x6c, 0x0a, 0xf9, 0x01, 0xf7, 0xf5, 0xfa, 0x06,
  0x07, 0xff, 0x09, 0x72, 0xf6, 0xff, 0x6b, 0x7c, 0xf7, 0xfa, 0x68, 0x6f,
  0x08, 0x6f, 0x7b, 0xf5, 0xfd, 0xfc, 0xfd, 0x05, 0x6f, 0x79, 0x6e, 0x76,
  0x6c, 0x7d, 0x7b, 0x79, 0x71, 0x04, 0x6c, 0x0a, 0x03, 0x00, 0xfe, 0xfc,
  0x79, 0x0b, 0x7e, 0x78, 0x00, 0x76, 0x07, 0x70, 0x04, 0xf9, 0x78, 0x6f,
  0xfb, 0x72, 0xff, 0x08, 0x74, 0x71, 0x08, 0xfa, 0x87, 0x02, 0x02, 0x92,
  0xf6, 0x01, 0x88, 0xf6, 0x09, 0x02, 0x05, 0x81, 0x93, 0x01, 0x94, 0x84,
  0xff, 0x93, 0x92, 0x98, 0xff, 0x96, 0x90, 0x84, 0xf9, 0x8a, 0x8a, 0xf8,
  0x8e, 0x82, 0x8d, 0x8c, 0x97, 0x90, 0x93, 0x8b, 0x86, 0xa0, 0x84, 0x91,
  0x00, 0x8a, 0x97, 0xf8, 0x98, 0x02, 0x83, 0x8f, 0x8b, 0x96, 0x86, 0x8b,
  0x93, 0x8f, 0x84, 0x91, 0x01, 0x8e, 0x89, 0x06, 0x96, 0x86, 0xf9, 0xfb,
  0x90, 0xfd, 0xfd, 0x9a, 0x07, 0x00, 0x89, 0xfa, 0xfe, 0xff, 0x0b, 0x8f,
  0x90, 0x00, 0x92, 0x94, 0xfd, 0x9e, 0x83, 0x98, 0x04, 0x91, 0x93, 0x8e,
  0xfe, 0x87, 0x91, 0xf9, 0x97, 0x92, 0x93, 0x83, 0x93, 0x8b, 0x86, 0x93,
  0x97, 0xbb, 0x90, 0x9d, 0x0a, 0x90, 0x97, 0xf7, 0x94, 0x00, 0x98, 0x8f,
  0x9a, 0x97, 0x8f, 0x8e, 0x8d, 0x98, 0x91, 0x89, 0x0c, 0x94, 0x8d, 0xf6,
  0x84, 0x94, 0xf5, 0x07, 0x6a, 0xfa, 0xf5, 0x76, 0x0a, 0x01, 0x7c, 0xfa,
  0x08, 0x09, 0x0a, 0x09, 0x68, 0x05, 0xfb, 0x76, 0x01, 0x6b, 0x74, 0xfa,
  0x09, 0x6b, 0x78, 0x69, 0xfb, 0x77, 0x70, 0xfa, 0xfa, 0x68, 0x76, 0x71,
  0x6a, 0xf9, 0x79, 0xfe, 0x06, 0x51, 0x7e, 0x6b, 0xff, 0x6a, 0x77, 0x05,
  0x7b, 0x04, 0xf4, 0x77, 0x6d, 0x71, 0x7a, 0x78, 0x6b, 0x73, 0x72, 0x74,
  0x06, 0x77, 0x77, 0x0b, 0x70, 0x76, 0xfe, 0x0b, 0x8e, 0xf5, 0x04, 0x07,
  0xfe, 0xf9, 0x82, 0x04, 0x0a, 0x01, 0xf8, 0x86, 0xf7, 0x07, 0x95, 0x94,
  0x0a, 0x03, 0x96, 0x97, 0xf5, 0x8f, 0x8e, 0x87, 0xf8, 0x97, 0xfd, 0x0b,
  0x94, 0x96, 0x91, 0x97, 0x84, 0x85, 0x88, 0x97, 0x96, 0x06, 0x8f, 0x02,
  0x07, 0x8d, 0x09, 0x00, 0x8e, 0x04, 0x85, 0x82, 0xf6, 0x8e, 0x82, 0x94,
  0x8a, 0x99, 0x8f, 0x8c, 0x00, 0x87, 0x87, 0x00, 0x90, 0x84, 0x02, 0xfa,
  0x89, 0x06, 0x07, 0xd0, 0xff, 0x05, 0x96, 0x00, 0x06, 0xfa, 0xf8, 0x8b,
  0xce, 0x01, 0x93, 0x93, 0x00, 0xd2, 0x8f, 0xb7, 0xf8, 0x8f, 0x98, 0xa2,
  0xf7, 0x8e, 0xdf, 0x04, 0x98, 0x8d, 0x87, 0x8a, 0x94, 0x89, 0x83, 0x98,
  0x8f, 0xee, 0x91, 0xeb, 0x08, 0x9f, 0xd8, 0x0b, 0x8d, 0xfa, 0xb5, 0x99,
  0xc8, 0x92, 0x98, 0x91, 0xb6, 0xd2, 0x8f, 0x94, 0x0a, 0x8e, 0x8d, 0xfc,
  0x92, 0x86, 0xfa, 0x05, 0xf9, 0xf7, 0xf6, 0xf6, 0xf9, 0x04, 0x0a, 0x06,
  0x02, 0xfb, 0x00, 0x06, 0x00, 0x03, 0xfb, 0x08, 0x02, 0xfe, 0xf7, 0x0b,
  0x01, 0xff, 0x0b, 0xf9, 0x09, 0xf7, 0x05, 0xf8, 0xf6, 0xfa, 0x06, 0x05,
  0xfa, 0xfc, 0x01, 0x04, 0x03, 0xff, 0xf8, 0xf4, 0xff, 0xfd, 0xf6, 0xf5,
  0x03, 0x06, 0x01, 0xfb, 0x07, 0xfc, 0x07, 0x04, 0x0b, 0x03, 0xfa, 0xf8,
  0x04, 0xf6, 0xff, 0x02, 0xf8, 0xf7, 0x0a, 0xf9, 0x86, 0x09, 0x0c, 0x04,
  0xf6, 0xf9, 0x83, 0x03, 0xf6, 0x03, 0x04, 0x95, 0xf8, 0xf8, 0x94, 0x95,
  0xf7, 0x08, 0x94, 0x87, 0xfe, 0x92, 0x96, 0x82, 0x08, 0x8d, 0x06, 0x09,
  0x94, 0x88, 0x94, 0x96, 0x81, 0x8a, 0x95, 0x8d, 0x87, 0xfb, 0x8a, 0x0b,
  0xfd, 0x84, 0x07, 0xfc, 0x90, 0xfc, 0x89, 0x8f, 0xf6, 0x98, 0x82, 0x84,
  0x93, 0x8f, 0x8a, 0x92, 0x05, 0x82, 0x96, 0xfb, 0x90, 0x95, 0x07, 0x08,
  0x8b, 0x01, 0xf6, 0xa2, 0xf8, 0xf6, 0x97, 0xfd, 0xfb, 0x0b, 0xf9, 0x05,
  0x96, 0x06, 0x04, 0x87, 0x09, 0x8f, 0x8f, 0x05, 0x06, 0x8b, 0x8b, 0x94,
  0x0a, 0x8a, 0x9b, 0x08, 0xfe, 0x97, 0x90, 0x84, 0x89, 0x03, 0x8f, 0xf6,
  0x03, 0xc2, 0x90, 0xab, 0xfc, 0x99, 0xa6, 0x05, 0x97, 0xfa, 0xfe, 0x8f,
  0x8c, 0x92, 0x94, 0x82, 0x8f, 0x9e, 0x8f, 0x92, 0x0b, 0x83, 0x94, 0xfd,
  0xb5, 0x95, 0xfa, 0x05, 0x6f, 0x08, 0xfb, 0x6d, 0xff, 0xf9, 0x76, 0x00,
  0x09, 0xfa, 0xff, 0x08, 0x65, 0x05, 0xfb, 0x6e, 0xfd, 0x70, 0x7f, 0x0b,
  0xf5, 0x76, 0x7a, 0x7d, 0xf8, 0x6e, 0x78, 0x08, 0x07, 0x6d, 0x6e, 0x6d,
  0x7c, 0xfd, 0x7a, 0xfb, 0xf8, 0x49, 0x75, 0x67, 0xff, 0x7a, 0x78, 0xf9,
  0x7f, 0x0a, 0xfc, 0x6e, 0x68, 0x6a, 0x6e, 0x79, 0x6f, 0x74, 0x6c, 0x7c,
  0x0b, 0x6e, 0x71, 0xfc, 0x77, 0x7b, 0xfa, 0xfe, 0x8f, 0x01, 0x01, 0xaa,
  0x03, 0xf5, 0x86, 0x0a, 0x04, 0x02, 0x0b, 0x88, 0x9f, 0x09, 0x95, 0x98,
  0xf8, 0xa1, 0x96, 0x9e, 0xf8, 0x93, 0x97, 0x95, 0xf5, 0x93, 0xa4, 0x04,
  0x82, 0x8f, 0x88, 0x93, 0x99, 0x8a, 0x94, 0x94, 0x84, 0xe4, 0x8d, 0xb1,
  0x06, 0x92, 0xaf, 0x00, 0x85, 0xf8, 0x95, 0x90, 0xa0, 0x8b, 0x92, 0x93,
  0x8c, 0xad, 0x8d, 0x91, 0x04, 0x97, 0x85, 0xfa, 0x8d, 0x83, 0x04, 0x04,
  0x95, 0x07, 0xf5, 0x0a, 0x0a, 0x05, 0x8c, 0xfc, 0x05, 0xfc, 0xfc, 0x8a,
  0x09, 0xfa, 0x95, 0x86, 0x00, 0x0a, 0x94, 0x8d, 0x07, 0x95, 0x92, 0x8e,
  0x09, 0xad, 0xfe, 0x03, 0x8f, 0x84, 0x84, 0x93, 0x89, 0x83, 0x97, 0x8b,
  0x8b, 0xf7, 0x84, 0xfa, 0xfb, 0x8c, 0x02, 0xfb, 0x85, 0x06, 0x91, 0x87,
  0x08, 0x89, 0x93, 0x8f, 0x0b, 0x00, 0x85, 0x98, 0x06, 0x84, 0x86, 0x0b,
  0x8c, 0x96, 0xfa, 0xf9, 0x94, 0xfc, 0x02, 0xf3, 0x02, 0x0b, 0x9d, 0xf7,
  0x0b, 0xf5, 0x02, 0x96, 0xf9, 0xf7, 0x8c, 0x9a, 0xfd, 0xf1, 0x9b, 0xd2,
  0xfa, 0x8f, 0x89, 0xae, 0x02, 0xa3, 0xf9, 0xff, 0x95, 0x93, 0x8f, 0x8c,
  0x98, 0x93, 0x90, 0x99, 0x92, 0xff, 0x91, 0xfa, 0x0a, 0xa7, 0xf8, 0x01,
  0x98, 0x0b, 0xc7, 0x95, 0xf2, 0x99, 0xac, 0x95, 0xdf, 0xee, 0x90, 0x96,
  0x05, 0x8f, 0x9e, 0x03, 0x97, 0x8a, 0x05, 0x05, 0x6b, 0xfe, 0xf8, 0x77,
  0xfa, 0x01, 0x6b, 0x00, 0xff, 0xfc, 0xf6, 0x6c, 0x67, 0xfa, 0x75, 0x79,
  0x02, 0x70, 0x7f, 0x00, 0x00, 0x74, 0x6c, 0x7a, 0x02, 0x70, 0x74, 0x01,
  0x68, 0x7e, 0x68, 0x7a, 0x6c, 0x71, 0x70, 0x66, 0x67, 0x56, 0x7c, 0x71,
  0xf5, 0x7d, 0x69, 0x0a, 0x68, 0x03, 0xf5, 0x7a, 0x77, 0x79, 0x7e, 0x78,
  0x7c, 0x6b, 0x74, 0x74, 0xf5, 0x7a, 0x74, 0x0b, 0x69, 0x6d, 0x00, 0xfb,
  0x70, 0x00, 0xf5, 0x68, 0xfe, 0xfa, 0x69, 0x05, 0xff, 0x06, 0xf7, 0xf7,
  0x6d, 0xf8, 0xfc, 0x76, 0x0a, 0x76, 0x7d, 0x06, 0xfb, 0x7e, 0x72, 0x6e,
  0xff, 0x71, 0x68, 0x09, 0xf9, 0x72, 0x6e, 0x79, 0x6e, 0x01, 0x71, 0x01,
  0xfc, 0x02, 0x6f, 0x70, 0xfb, 0x73, 0x60, 0x0a, 0x79, 0xf5, 0xf9, 0x7d,
  0x68, 0x6d, 0x6b, 0x7b, 0x78, 0x70, 0x6b, 0x68, 0xf8, 0x7a, 0x72, 0x06,
  0x6b, 0x69, 0xfc, 0x0b, 0xf6, 0xf8, 0xfc, 0x03, 0x09, 0x0b, 0xfb, 0x03,
  0xfa, 0x08, 0xfd, 0xfc, 0x09, 0xfb, 0x07, 0x01, 0xff, 0x03, 0xfa, 0x08,
  0xfc, 0x03, 0xfa, 0xfd, 0x02, 0xfe, 0x00, 0x03, 0x00, 0x01, 0xf7, 0x02,
  0xf5, 0x01, 0x04, 0xfd, 0xf9, 0x03, 0xf9, 0xf6, 0xfb, 0xfe, 0xf8, 0x04,
  0xfd, 0x00, 0xfb, 0x00, 0xf9, 0xf5, 0xf8, 0x0a, 0xf5, 0xfc, 0xfa, 0xf5,
  0x02, 0x0b, 0xfd, 0x0b, 0x08, 0xf6, 0xf8, 0x09, 0x79, 0xf5, 0x00, 0xf9,
  0x05, 0xf5, 0x03, 0x09, 0xfb, 0xf9, 0x07, 0x7c, 0x01, 0x09, 0x6c, 0x7a,
  0x01, 0xfc, 0x69, 0x68, 0xfa, 0x70, 0x79, 0x0b, 0x01, 0x01, 0xfe, 0x03,
  0x7e, 0x77, 0x7f, 0x71, 0x6b, 0x74, 0x77, 0x7c, 0x6c, 0x06, 0x6d, 0xff,
  0xfc, 0x08, 0xfe, 0x04, 0x78, 0xf9, 0x79, 0x6c, 0x0b, 0x7a, 0x00, 0x71,
  0x00, 0x09, 0x6a, 0x6a, 0x08, 0x72, 0xfd, 0xf8, 0x78, 0x71, 0xf5, 0xff,
  0xfe, 0x03, 0xfb, 0x06, 0x07, 0x07, 0xfb, 0x08, 0x01, 0x09, 0xfd, 0x02,
  0x05, 0x05, 0xfb, 0xff, 0x07, 0xf9, 0xfb, 0x09, 0x09, 0xfa, 0x07, 0xfc,
  0xf7, 0x04, 0x08, 0xfe, 0x04, 0xf8, 0x03, 0x02, 0x07, 0x03, 0xfc, 0xf5,
  0xf7, 0xf7, 0x00, 0xfb, 0xf5, 0x07, 0xfe, 0x0a, 0x02, 0xfe, 0xfa, 0xf6,
  0x00, 0xfc, 0xfd, 0x04, 0xf6, 0xfe, 0xff, 0x07, 0x02, 0xf6, 0xf8, 0x02,
  0x01, 0x08, 0xfd, 0x08, 0x09, 0xfc, 0x07, 0xfd, 0x08, 0x07, 0x05, 0xf6,
  0x03, 0x0b, 0x07, 0x0a, 0xff, 0x08, 0xf7, 0xfa, 0x04, 0xf9, 0x0a, 0x00,
  0x09, 0x01, 0x06, 0xf6, 0xf6, 0xf8, 0x09, 0x01, 0xf8, 0xf6, 0xfc, 0x05,
  0x01, 0x02, 0xf5, 0x05, 0x09, 0x03, 0xfa, 0xf7, 0x06, 0xf5, 0x03, 0x06,
  0x00, 0x06, 0xf9, 0x01, 0xfb, 0x06, 0x08, 0xfb, 0xfe, 0x06, 0xfa, 0xff,
  0xf7, 0xf7, 0x02, 0xff, 0xfd, 0xfe, 0xfa, 0x06, 0x7d, 0x06, 0xff, 0xfd,
  0xfe, 0x0b, 0x06, 0xfd, 0x07, 0x07, 0x02, 0x73, 0xff, 0xf8, 0x7d, 0x73,
  0x00, 0x00, 0x6b, 0x65, 0x03, 0x77, 0x72, 0x06, 0x07, 0xf8, 0x0b, 0xfe,
  0x7e, 0x74, 0x78, 0x7b, 0x70, 0x6b, 0x6e, 0x6f, 0x7d, 0xff, 0x6d, 0x00,
  0xf8, 0xfb, 0x05, 0xfe, 0x75, 0x06, 0x79, 0x7a, 0x03, 0x79, 0xfb, 0x6e,
  0xfb, 0xf9, 0x68, 0x73, 0x09, 0x72, 0xfc, 0x01, 0x7f, 0x6f, 0xff, 0x04,
  0x01, 0xf9, 0xfe, 0xfb, 0xfc, 0xf7, 0x06, 0x01, 0x0c, 0x0a, 0x07, 0xfc,
  0x09, 0x0a, 0xff, 0x00, 0xfa, 0xf4, 0x02, 0x08, 0xf8, 0x01, 0xf9, 0x08,
  0xfa, 0x02, 0xf9, 0xf8, 0x03, 0xf4, 0x07, 0x09, 0x05, 0xf8, 0x01, 0xfa,
  0x00, 0xfd, 0xfd, 0x03, 0xfc, 0x05, 0x07, 0x01, 0xfb, 0xfc, 0x0b, 0xfe,
  0xfc, 0x03, 0x06, 0xf7, 0xff, 0x01, 0xf8, 0xfb, 0xf8, 0x01, 0x01, 0x05,
  0x09, 0xf8, 0xfe, 0x06, 0x71, 0xfa, 0x02, 0x0b, 0x09, 0x03, 0x67, 0x01,
  0xf6, 0xf5, 0xfb, 0x7e, 0x01, 0xfa, 0x76, 0x7a, 0xfd, 0x01, 0x6c, 0x74,
  0x08, 0x7c, 0x6b, 0x62, 0xfa, 0x46, 0x07, 0x06, 0x68, 0x6c, 0x7b, 0x69,
  0x7a, 0x7b, 0x78, 0x77, 0x74, 0xff, 0x6d, 0xfa, 0x0a, 0x61, 0x01, 0x03,
  0x6d, 0xfd, 0x6b, 0x73, 0x06, 0x73, 0x64, 0x7e, 0x04, 0xfa, 0x72, 0x6f,
  0xfb, 0x79, 0x78, 0xfa, 0x77, 0x6f, 0xf9, 0xfc, 0x6f, 0x07, 0xf5, 0xf6,
  0xf5, 0xf6, 0x67, 0xfb, 0x09, 0xf5, 0x09, 0x77, 0xf9, 0xf6, 0x7a, 0x7e,
  0x07, 0xfe, 0x6f, 0x66, 0x0a, 0x7d, 0x73, 0x67, 0x08, 0x6b, 0xfc, 0xf5,
  0x79, 0x78, 0x6d, 0x7a, 0x6d, 0x6a, 0x7b, 0x7a, 0x7a, 0xfe, 0x7a, 0x07,
  0xf9, 0x69, 0xff, 0xf8, 0x77, 0x05, 0x79, 0x6b, 0xfa, 0x6e, 0x64, 0x70,
  0x03, 0x0a, 0x74, 0x73, 0x05, 0x70, 0x78, 0x05, 0x7a, 0x79, 0x01, 0xfe,
  0x08, 0xf7, 0xf6, 0x09, 0x07, 0x08, 0xfd, 0xfe, 0xf7, 0xfc, 0xf9, 0x00,
  0x01, 0xfc, 0x0a, 0xfc, 0xf9, 0xf9, 0x01, 0x00, 0x0a, 0xf5, 0xf9, 0x0b,
  0x03, 0xf7, 0x01, 0xf6, 0x05, 0x04, 0xfe, 0x0b, 0x00, 0xf6, 0x01, 0xfd,
  0xfd, 0x01, 0xfd, 0xf5, 0x07, 0x05, 0xfb, 0xf5, 0x0b, 0x05, 0x01, 0xff,
  0xf5, 0xf6, 0x04, 0xf9, 0x08, 0x02, 0x05, 0xff, 0x0b, 0x04, 0x0a, 0xfc,
  0xfd, 0xfc, 0xff, 0x06, 0x70, 0xf8, 0xfd, 0xf6, 0xfa, 0x00, 0x77, 0x0a,
  0x04, 0xf7, 0xff, 0xf5, 0xfc, 0xfe, 0x08, 0x69, 0x01, 0x04, 0x79, 0x0a,
  0xf9, 0x7b, 0x7b, 0x6e, 0x07, 0x69, 0x04, 0x03, 0x03, 0x6b, 0x69, 0x7c,
  0x77, 0x09, 0x7a, 0xfe, 0x00, 0x08, 0x71, 0xff, 0x02, 0x6e, 0xfd, 0x0a,
  0x7f, 0x09, 0xf6, 0x74, 0xfe, 0x6e, 0x77, 0x7a, 0x6c, 0x6b, 0x6f, 0x6f,
  0x0a, 0x6d, 0x71, 0xfc, 0x73, 0x6a, 0xf8, 0x08, 0x97, 0x06, 0xf5, 0x06,
  0x00, 0x02, 0xaa, 0xf9, 0xf8, 0x03, 0xfc, 0x8a, 0x03, 0xfa, 0x8f, 0x86,
  0x09, 0xfc, 0x9c, 0xb4, 0x05, 0x92, 0x98, 0xc5, 0xfb, 0xfb, 0x03, 0x0a,
  0x92, 0x94, 0x92, 0x93, 0x99, 0x85, 0x94, 0x91, 0x95, 0x0a, 0x95, 0xfe,
  0x06, 0xde, 0x07, 0xf8, 0x8f, 0xfd, 0xa1, 0x98, 0x05, 0x82, 0xef, 0x8c,
  0xff, 0xf5, 0x8a, 0x8c, 0xf5, 0x8c, 0xb1, 0xfd, 0x8e, 0x87, 0x05, 0xf5,
  0x97, 0xfa, 0xfd, 0x00, 0x02, 0xfd, 0x85, 0xff, 0x06, 0xfe, 0xfd, 0x96,
  0xfa, 0x06, 0x91, 0x97, 0xfe, 0x00, 0x87, 0x87, 0xf9, 0x8e, 0x98, 0x86,
  0x0a, 0x8e, 0xfb, 0xf6, 0x8e, 0x82, 0x8f, 0x85, 0x8e, 0x8c, 0x87, 0x94,
  0x87, 0xfc, 0x8e, 0x0a, 0x07, 0x95, 0x01, 0xf7, 0x97, 0xf5, 0x8c, 0x82,
  0xfe, 0x95, 0x96, 0x91, 0xff, 0x0a, 0x89, 0x8a, 0x02, 0x8b, 0x8f, 0x01,
  0x94, 0x84, 0xfd, 0x0a, 0xfd, 0xf9, 0x00, 0xfd, 0x0a, 0x09, 0xff, 0x01,
  0x00, 0x0a, 0x05, 0x09, 0xfb, 0xf6, 0x08, 0xf8, 0xfe, 0xfc, 0x03, 0x0a,
  0x09, 0xfd, 0x06, 0x04, 0xfe, 0x00, 0xf9, 0x02, 0xfa, 0xfc, 0xfa, 0xf6,
  0x09, 0xf5, 0x05, 0x05, 0xfd, 0x05, 0xff, 0x03, 0xfb, 0xfb, 0x08, 0x05,
  0x09, 0x01, 0x00, 0x01, 0xf5, 0x01, 0xf6, 0xff, 0xfa, 0xfb, 0xf6, 0x06,
  0x07, 0xfa, 0x09, 0x00, 0xff, 0xfc, 0x06, 0xfe, 0x01, 0x08, 0xf9, 0x03,
  0x06, 0xfb, 0xfd, 0x03, 0x04, 0xfe, 0xfb, 0x0b, 0xf8, 0xf8, 0x01, 0x07,
  0x02, 0x06, 0x05, 0xf8, 0x0b, 0xf6, 0xf7, 0xf6, 0x03, 0xfb, 0x02, 0xf8,
  0x0a, 0x08, 0x09, 0xf9, 0xf8, 0xfb, 0x05, 0x0a, 0xfc, 0x00, 0x0b, 0x06,
  0xfd, 0x06, 0x05, 0x06, 0x03, 0xfd, 0xf9, 0x07, 0x00, 0xf6, 0xfa, 0xfa,
  0x06, 0xf7, 0x03, 0xf6, 0x04, 0xf8, 0xfd, 0x07, 0x0a, 0x0b, 0xfc, 0x08,
  0xfc, 0x09, 0x05, 0xfc, 0xfe, 0xfc, 0x0b, 0xfc, 0xfd, 0x06, 0xfb, 0x06,
  0xff, 0x02, 0xf9, 0x01, 0xf6, 0xf9, 0x02, 0x05, 0xf7, 0x00, 0xfa, 0xf9,
  0xfa, 0xfb, 0x02, 0xf7, 0xfb, 0x00, 0xf9, 0xf8, 0x01, 0x08, 0x08, 0xfb,
  0xfd, 0xfd, 0x07, 0xf8, 0xf6, 0x02, 0x09, 0xfb, 0x08, 0x02, 0x0a, 0x05,
  0x07, 0x00, 0x08, 0x00, 0xf5, 0x00, 0x07, 0xfe, 0xfc, 0xf5, 0xf5, 0x07,
  0x02, 0x00, 0x00, 0xf6, 0x98, 0x03, 0xf8, 0xa1, 0xfe, 0x01, 0x8d, 0xf5,
  0xff, 0xf6, 0xfb, 0x92, 0xa4, 0xf5, 0x91, 0x90, 0x05, 0xa1, 0x8e, 0x95,
  0x0b, 0x82, 0x83, 0x8f, 0xf7, 0x88, 0xa9, 0xfa, 0x8c, 0x86, 0x84, 0x95,
  0x93, 0x89, 0x91, 0x90, 0x96, 0xd4, 0x8d, 0x9f, 0x09, 0x8f, 0xa8, 0xfd,
  0x90, 0x02, 0x89, 0x95, 0xa2, 0x92, 0x97, 0x93, 0x94, 0xaa, 0x93, 0x98,
  0x03, 0x88, 0x83, 0xf6, 0x8a, 0x84, 0x01, 0x01, 0x8e, 0xff, 0x0a, 0xa9,
  0xf9, 0x01, 0x97, 0x09, 0xfe, 0xfb, 0x0b, 0x92, 0x98, 0xfc, 0x92, 0x87,
  0x02, 0x9f, 0x8a, 0x9a, 0xfa, 0x98, 0x8a, 0x91, 0x01, 0x89, 0xa9, 0xf7,
  0x8c, 0x84, 0x94, 0x95, 0x8b, 0x88, 0x90, 0x91, 0x8e, 0xe9, 0x81, 0xb4,
  0xf7, 0x97, 0xa8, 0x06, 0x98, 0xf5, 0x8a, 0x92, 0xa9, 0x97, 0x9b, 0x8c,
  0x96, 0x9d, 0x95, 0x8a, 0xf7, 0x92, 0x8d, 0x0a, 0x93, 0x8a, 0x06, 0x03,
  0x07, 0x07, 0x05, 0xfd, 0x0b, 0xf5, 0x08, 0x03, 0x06, 0xfb, 0xff, 0xfd,
  0x08, 0xff, 0xf9, 0xf6, 0x0a, 0x0a, 0xfe, 0x05, 0x02, 0x03, 0xfa, 0xf5,
  0x0b, 0xfb, 0x00, 0x0a, 0xf5, 0xf9, 0xfc, 0xfc, 0x06, 0x0b, 0x09, 0xf4,
  0x08, 0x07, 0xf5, 0x06, 0x06, 0xfe, 0xfd, 0xfb, 0x01, 0x0b, 0x09, 0x01,
  0x03, 0xfd, 0x05, 0xf5, 0xf8, 0xf8, 0x03, 0x00, 0x01, 0x0b, 0xfe, 0x02,
  0xf7, 0x08, 0x03, 0x08, 0xf9, 0x0a, 0xfd, 0xfa, 0x0a, 0x03, 0x0c, 0xf5,
  0x00, 0xfd, 0x04, 0xfb, 0x0b, 0xfe, 0xf8, 0xfd, 0xfe, 0x08, 0xf6, 0x06,
  0x08, 0xfb, 0xf5, 0x0a, 0x03, 0xf6, 0xff, 0xfb, 0x02, 0xf9, 0x03, 0x08,
  0xf5, 0x0a, 0xfe, 0x0a, 0xf8, 0xff, 0x03, 0x04, 0x02, 0xf7, 0x00, 0x09,
  0x09, 0x01, 0xfe, 0xfc, 0xfe, 0x02, 0x06, 0xf7, 0xf6, 0x06, 0xfb, 0xfb,
  0xf8, 0xfe, 0xfd, 0x0b, 0xfb, 0x07, 0xfa, 0xfe, 0x72, 0x00, 0xf6, 0x62,
  0x06, 0x07, 0x7b, 0xf5, 0xff, 0x08, 0xf7, 0x79, 0x64, 0x0a, 0x69, 0x79,
  0xf8, 0x5a, 0x6c, 0x66, 0x0b, 0x75, 0x7a, 0x79, 0x00, 0x6d, 0x58, 0x0b,
  0x72, 0x76, 0x7a, 0x74, 0x6e, 0x75, 0x6b, 0x7e, 0x7c, 0x19, 0x7a, 0x4f,
  0x04, 0x78, 0x5a, 0xf9, 0x7d, 0xf5, 0x67, 0x74, 0x5e, 0x73, 0x76, 0x68,
  0x65, 0x57, 0x79, 0x7d, 0x09, 0x6b, 0x67, 0xf6, 0x7a, 0x6a, 0xf9, 0xf6,
  0x84, 0x07, 0x0b, 0xfc, 0xfc, 0x08, 0xfe, 0x09, 0xf5, 0x05, 0x09, 0x95,
  0xf9, 0x01, 0x9a, 0x99, 0xfd, 0x05, 0xf5, 0x9d, 0xfb, 0x8e, 0x99, 0xf9,
  0x06, 0x0a, 0x04, 0xfe, 0x88, 0x97, 0x96, 0x88, 0x8d, 0x94, 0x91, 0x99,
  0x8d, 0x03, 0xa4, 0xfe, 0xf7, 0x05, 0x00, 0x05, 0xfc, 0xfb, 0x9e, 0xf9,
  0x0b, 0x87, 0xfa, 0x8c, 0x09, 0xfd, 0x86, 0x8e, 0x09, 0x85, 0xf8, 0x03,
  0x87, 0x88, 0xf5, 0xfe, 0x96, 0x0b, 0x0a, 0xf7, 0x07, 0x02, 0x8f, 0xf6,
  0x02, 0x0b, 0xfe, 0x91, 0xff, 0x03, 0x91, 0x88, 0xf6, 0x04, 0x85, 0x99,
  0x00, 0x8e, 0x94, 0x9b, 0x09, 0x00, 0xff, 0xfd, 0x83, 0x94, 0x90, 0x90,
  0x8a, 0x8e, 0x83, 0x92, 0x94, 0xff, 0x8a, 0xfb, 0x00, 0x01, 0xfe, 0xfe,
  0x8d, 0xf7, 0x83, 0x85, 0x06, 0x90, 0xce, 0x86, 0xf9, 0x00, 0x8f, 0x96,
  0x01, 0x8b, 0x90, 0xfc, 0x8c, 0x8c, 0x03, 0xfd, 0x06, 0xfa, 0x07, 0x04,
  0xf5, 0x00, 0x03, 0x09, 0xfa, 0xf9, 0x0b, 0x03, 0xf8, 0xf9, 0x02, 0xf7,
  0x0b, 0x07, 0x0b, 0x06, 0xfb, 0xf5, 0x09, 0xfb, 0xfb, 0x0a, 0x03, 0xfd,
  0x01, 0xf7, 0x08, 0x05, 0x0b, 0x0b, 0x0b, 0x0b, 0x03, 0x06, 0x0b, 0x08,
  0xf7, 0xfd, 0xfc, 0x00, 0xf6, 0x04, 0x0a, 0xf9, 0xf5, 0xf5, 0x01, 0x08,
  0x03, 0xf6, 0x02, 0xfb, 0xfa, 0xf7, 0x05, 0xfb, 0xf6, 0xfb, 0x05, 0xfa,
  0xf9, 0x0b, 0xfe, 0x06, 0x0b, 0xfb, 0x03, 0x07, 0x02, 0xfe, 0xfa, 0xf8,
  0xf8, 0xfb, 0x07, 0xfa, 0xff, 0xfc, 0xf9, 0xfe, 0xf5, 0x03, 0x0b, 0x03,
  0xf5, 0xfe, 0x07, 0xf6, 0xf6, 0xf7, 0x08, 0xf7, 0x04, 0xf8, 0x00, 0x08,
  0xf7, 0xfc, 0xfe, 0x05, 0xf9, 0xfe, 0x06, 0x0b, 0x05, 0xf6, 0xff, 0x00,
  0x06, 0xf5, 0xff, 0xfb, 0xf5, 0xfe, 0xff, 0xf8, 0xf9, 0xf7, 0x08, 0x06,
  0xff, 0x04, 0x01, 0x07, 0xf8, 0x05, 0xfb, 0x07, 0x07, 0x06, 0x06, 0x08,
  0x01, 0xff, 0x04, 0xfa, 0xf4, 0x09, 0x04, 0xfc, 0x00, 0xfd, 0xfb, 0xfb,
  0xf5, 0xfc, 0x05, 0x0a, 0xfc, 0x08, 0xf8, 0x0a, 0x07, 0xfe, 0x06, 0xf6,
  0xfd, 0xf5, 0x05, 0xfb, 0x08, 0x05, 0x02, 0x00, 0xf7, 0x06, 0xfc, 0x06,
  0x02, 0xfb, 0x08, 0xf8, 0xfe, 0xf6, 0xfa, 0xf5, 0xf7, 0xf6, 0x0b, 0xff,
  0xfa, 0xfd, 0x00, 0xf5, 0xff, 0xfc, 0xf5, 0x09, 0x96, 0xfa, 0xf5, 0xf6,
  0x03, 0x04, 0x88, 0xfd, 0x06, 0x00, 0xf9, 0x91, 0xf6, 0xf9, 0x8e, 0x8c,
  0x07, 0xfd, 0x8a, 0x90, 0x09, 0x91, 0x89, 0x8b, 0xfb, 0x92, 0x0a, 0x0b,
  0x86, 0x8f, 0x97, 0x91, 0x97, 0x90, 0x97, 0x8e, 0x90, 0xfd, 0x8e, 0xf8,
  0xfd, 0x8a, 0xf4, 0xfd, 0x87, 0xf8, 0x85, 0x85, 0x01, 0x94, 0x8a, 0x93,
  0x91, 0x8c, 0x83, 0x92, 0xf6, 0x87, 0x8d, 0x08, 0x8a, 0x93, 0x00, 0x0a,
  0x09, 0x02, 0xfb, 0xf7, 0xf6, 0x05, 0xf5, 0x07, 0xf7, 0x0b, 0x03, 0xf9,
  0xfa, 0x02, 0xfa, 0x03, 0x08, 0xff, 0x08, 0x03, 0x0a, 0xfd, 0xf5, 0xf9,
  0xff, 0xf9, 0xf8, 0xf7, 0xf6, 0xfd, 0xf7, 0xf8, 0x05, 0xf9, 0xfa, 0x09,
  0x00, 0x02, 0xf6, 0x03, 0xfe, 0x08, 0xff, 0x08, 0x02, 0x03, 0xf9, 0x03,
  0x03, 0x07, 0x00, 0x01, 0xfb, 0xf9, 0xfb, 0xfa, 0x07, 0xf9, 0x00, 0xf8,
  0x06, 0xf6, 0x05, 0xfb, 0xfc, 0x0a, 0xf8, 0xff, 0x08, 0xfc, 0xf5, 0x01,
  0x09, 0xff, 0x07, 0x03, 0xf8, 0xf7, 0xfb, 0xf4, 0x01, 0x0b, 0x0b, 0xfc,
  0xff, 0x0a, 0xff, 0xf6, 0x00, 0xf5, 0x0b, 0xf9, 0x08, 0xfa, 0x0a, 0xfc,
  0x09, 0x08, 0xf5, 0x05, 0xfe, 0x06, 0xfb, 0x02, 0x09, 0xf5, 0x0b, 0x02,
  0x08, 0xf8, 0x0a, 0x06, 0x09, 0xf5, 0xff, 0x06, 0x02, 0xfb, 0xf7, 0xfe,
  0x09, 0xfe, 0x03, 0xfd, 0x04, 0x05, 0x06, 0xfd, 0x8d, 0xf9, 0xf6, 0x8f,
  0xfb, 0x06, 0x89, 0xff, 0xf8, 0x0a, 0xf9, 0x88, 0x86, 0x02, 0x85, 0x8f,
  0x0b, 0x9a, 0x91, 0x07, 0x01, 0x8f, 0x98, 0x91, 0x0a, 0x8e, 0x8c, 0x08,
  0x82, 0x8d, 0x95, 0x94, 0x89, 0x8f, 0x82, 0x8d, 0x8e, 0xab, 0x93, 0x90,
  0xfb, 0x97, 0x9c, 0xfb, 0x8b, 0xfb, 0x0b, 0x88, 0x90, 0x8f, 0x87, 0x8b,
  0x87, 0x88, 0x87, 0x88, 0xfb, 0x90, 0x8d, 0x07, 0x8f, 0x8d, 0x02, 0xf6,
  0x8f, 0xf5, 0xfb, 0x8e, 0xff, 0x09, 0x90, 0x02, 0x09, 0x06, 0xff, 0x95,
  0x9a, 0xfb, 0x95, 0x90, 0xf7, 0x98, 0x90, 0x96, 0x0c, 0x81, 0x87, 0x97,
  0xf5, 0x97, 0x98, 0x08, 0x90, 0x96, 0x94, 0x8f, 0x8f, 0x81, 0x85, 0x8a,
  0x94, 0xb6, 0x92, 0x8c, 0xfc, 0x8f, 0x8a, 0xfc, 0x90, 0xff, 0x8e, 0x95,
  0x8f, 0x90, 0x96, 0x8d, 0x87, 0x91, 0x89, 0x95, 0x06, 0x91, 0x98, 0x00,
  0x85, 0x94, 0x03, 0xf6, 0x95, 0xfe, 0x03, 0xff, 0xf8, 0x0a, 0x90, 0xf8,
  0x01, 0x08, 0x05, 0x91, 0xf5, 0xfa, 0x83, 0x97, 0xfc, 0xfa, 0x84, 0x8a,
  0xf5, 0x96, 0x8c, 0x92, 0xf5, 0x88, 0x04, 0x0a, 0x83, 0x97, 0x8b, 0x93,
  0x89, 0x91, 0x85, 0x82, 0x94, 0x0a, 0x83, 0xf5, 0x04, 0x91, 0x04, 0x04,
  0x8a, 0x01, 0x98, 0x88, 0xfb, 0x81, 0x89, 0x98, 0x86, 0x94, 0x8f, 0x95,
  0x0b, 0x8e, 0x84, 0x0a, 0x90, 0x8d, 0xff, 0xf8, 0x73, 0x04, 0xfc, 0x5c,
  0x05, 0x05, 0x69, 0xf9, 0xfc, 0x0b, 0x03, 0x6c, 0x62, 0x04, 0x73, 0x72,
  0xf7, 0x4a, 0x7c, 0x5d, 0xf9, 0x7b, 0x79, 0x68, 0x04, 0x6a, 0x4a, 0x04,
  0x7b, 0x79, 0x78, 0x77, 0x6b, 0x7d, 0x6d, 0x6d, 0x76, 0x1f, 0x73, 0x3f,
  0x08, 0x79, 0x4e, 0x01, 0x72, 0x03, 0x66, 0x79, 0x5c, 0x72, 0x6e, 0x6d,
  0x6a, 0x4b, 0x79, 0x75, 0xfa, 0x7d, 0x67, 0x01, 0x6d, 0x70, 0xfb, 0x08,
  0x84, 0xf8, 0xfe, 0x8c, 0xf5, 0xfb, 0x97, 0x08, 0xfa, 0x06, 0x01, 0x8f,
  0x8d, 0xfc, 0x97, 0x89, 0x0a, 0x8e, 0x8d, 0x8a, 0xfc, 0x93, 0x92, 0x8a,
  0x08, 0x87, 0x95, 0x06, 0x94, 0x96, 0x90, 0x8b, 0x93, 0x8c, 0x83, 0x86,
  0x87, 0xb0, 0x8b, 0x98, 0x08, 0x92, 0x99, 0x00, 0x8f, 0x02, 0x96, 0x82,
  0x9a, 0x8e, 0x98, 0x8d, 0x86, 0x94, 0x90, 0x91, 0xfd, 0x8b, 0x8c, 0xfe,
  0x8d, 0x8b, 0x06, 0xfb, 0xf8, 0x05, 0x08, 0x03, 0x04, 0xfa, 0xfe, 0x0a,
  0xfa, 0x01, 0x08, 0xfb, 0xf8, 0x0a, 0x0a, 0x02, 0x00, 0xff, 0xf9, 0xfc,
  0x00, 0xfc, 0x03, 0xff, 0xfd, 0xf7, 0xfd, 0xfd, 0xf5, 0xf8, 0x01, 0x00,
  0x09, 0x02, 0xfa, 0xf9, 0xf9, 0xfa, 0x09, 0x01, 0xff, 0x05, 0x08, 0xfd,
  0x02, 0x03, 0x00, 0xf8, 0xf6, 0x03, 0x08, 0xf5, 0xfe, 0xf5, 0x00, 0x02,
  0x04, 0x08, 0xfa, 0x09, 0x04, 0x03, 0x08, 0xfd, 0x01, 0x0b, 0x06, 0x70,
  0x0b, 0x03, 0x6c, 0x0a, 0xf6, 0x0b, 0x05, 0x0a, 0x78, 0x03, 0x04, 0x6c,
  0xf8, 0x68, 0x74, 0x0a, 0xfe, 0x6c, 0x6f, 0x70, 0x01, 0x71, 0x71, 0x0b,
  0x00, 0xf9, 0x08, 0x74, 0x65, 0xf8, 0xff, 0xf9, 0x0a, 0x56, 0x77, 0x74,
  0xf8, 0x7c, 0x7b, 0xfb, 0x71, 0xfd, 0x09, 0x77, 0x75, 0x71, 0x6c, 0x68,
  0x7c, 0x77, 0x74, 0x78, 0xfd, 0x6b, 0x78, 0xf8, 0xf8, 0x7b, 0x05, 0x03,
  0x04, 0x0a, 0xff, 0x7a, 0x05, 0x00, 0x72, 0x08, 0x02, 0x0b, 0x06, 0xfd,
  0x6c, 0x0b, 0xf8, 0x6e, 0xf7, 0x74, 0x69, 0xf8, 0xff, 0x72, 0x7d, 0x75,
  0xfc, 0x78, 0x71, 0xfa, 0xf9, 0x01, 0xf9, 0x6c, 0x6b, 0x09, 0x03, 0x09,
  0xfa, 0x5b, 0x7b, 0x63, 0xfd, 0x73, 0x71, 0xf7, 0x69, 0x06, 0xf7, 0x6f,
  0x6f, 0x75, 0x71, 0x79, 0x7b, 0x78, 0x76, 0x6d, 0x0c, 0x68, 0x6a, 0x0a,
  0xf7, 0x77, 0x06, 0x02, 0x81, 0xfe, 0xfa, 0x05, 0x02, 0x01, 0xfd, 0xfa,
  0xfc, 0xf5, 0xfc, 0x8e, 0x06, 0x0a, 0x82, 0x97, 0xfc, 0x00, 0x89, 0x89,
  0xf9, 0x98, 0x83, 0xfe, 0xf7, 0xf6, 0x05, 0x07, 0x8c, 0x8a, 0x90, 0x91,
  0x83, 0x94, 0x8e, 0x97, 0x93, 0xf9, 0x97, 0x05, 0x09, 0x03, 0x05, 0xfc,
  0x83, 0xf8, 0x98, 0x88, 0x09, 0x84, 0xf5, 0x88, 0xfe, 0xfb, 0x84, 0x8a,
  0x03, 0x96, 0xff, 0x03, 0x8c, 0x89, 0xfa, 0xff, 0x72, 0x07, 0x03, 0x08,
  0xfb, 0xf8, 0x09, 0xfc, 0x0a, 0xff, 0xfd, 0x6f, 0x0c, 0xf8, 0x7c, 0x7d,
  0xf4, 0x03, 0x7b, 0x7c, 0xfe, 0x7e, 0x7a, 0xf8, 0x09, 0xf5, 0x06, 0xf5,
  0x6e, 0x76, 0x6c, 0x78, 0x78, 0x7b, 0x73, 0x77, 0x71, 0x06, 0x6b, 0x07,
  0xf9, 0x07, 0xf7, 0x08, 0x71, 0x01, 0x7b, 0x6d, 0xf8, 0x72, 0xfe, 0x69,
  0xf8, 0x08, 0x72, 0x6f, 0xf6, 0x73, 0x00, 0xf7, 0x79, 0x6a, 0x02, 0x02,
  0x08, 0x09, 0x05, 0x0a, 0x07, 0xfd, 0xf8, 0xfe, 0xfb, 0x03, 0xf5, 0x0a,
  0xfd, 0x00, 0x01, 0xf6, 0x00, 0x03, 0xf5, 0xf8, 0xf8, 0x0b, 0x06, 0x05,
  0xf6, 0xfa, 0x0b, 0xff, 0xfe, 0xf8, 0x01, 0xfa, 0xf7, 0x03, 0xfb, 0xf6,
  0xf9, 0x05, 0x00, 0x00, 0x03, 0xff, 0xf5, 0x05, 0xfc, 0x06, 0x06, 0xfe,
  0xf8, 0xf9, 0xf8, 0xfb, 0x08, 0x05, 0xf9, 0x07, 0xfc, 0x04, 0x0b, 0xfd,
  0xf8, 0xfb, 0x02, 0xf8, 0xf2, 0xfe, 0xff, 0xff, 0x04, 0x00, 0x00, 0x00,
  0x00, 0x01, 0x00, 0x00, 0x70, 0x16, 0x83, 0xbe, 0xb0, 0xe7, 0xfb, 0xbf,
  0x10, 0x52, 0x11, 0xc0, 0x95, 0xfc, 0xfc, 0xbf, 0x3c, 0x40, 0xf4, 0xbd,
  0x27, 0xa7, 0x16, 0xc0, 0xec, 0x10, 0x13, 0xc0, 0x3a, 0x2d, 0x83, 0x3e,
  0x90, 0xad, 0x1b, 0xc0, 0x5b, 0x56, 0xfa, 0xbf, 0x32, 0x11, 0x1d, 0xc0,
  0x6a, 0xaf, 0xee, 0xbf, 0xf4, 0x6c, 0x03, 0xc0, 0x68, 0x93, 0x19, 0xc0,
  0x49, 0x48, 0xf6, 0xbf, 0xde, 0xc3, 0x09, 0xc0, 0x3c, 0xe2, 0x95, 0xbe,
  0x82, 0x28, 0xf6, 0xbf, 0x56, 0x7a, 0x06, 0xc0, 0x19, 0x28, 0x14, 0xc0,
  0xf7, 0x76, 0x08, 0xc0, 0x21, 0xa9, 0xfc, 0xbf, 0x0e, 0xf7, 0x09, 0xc0,
  0x60, 0x70, 0x1d, 0xc0, 0x0a, 0x77, 0x19, 0xc0, 0x80, 0x5b, 0x52, 0x3c,
  0x09, 0xa8, 0x1b, 0xc0, 0x82, 0x99, 0x25, 0x3e, 0xb8, 0x9a, 0xc7, 0x3d,
  0xf7, 0x37, 0x10, 0xc0, 0xfa, 0x0f, 0x95, 0x3e, 0xf1, 0x43, 0x13, 0xc0,
  0xa6, 0xf3, 0x10, 0xc0, 0x10, 0xd0, 0x6a, 0x3d, 0x40, 0x2e, 0x1a, 0xc0,
  0x71, 0xad, 0x09, 0xc0, 0xd5, 0xb6, 0x03, 0xc0, 0xf0, 0xd3, 0x58, 0xbe,
  0x50, 0xc3, 0x57, 0x3e, 0x38, 0x48, 0x0e, 0x3d, 0x1e, 0xa6, 0x07, 0xc0,
  0x5a, 0x4c, 0x08, 0xc0, 0x40, 0x42, 0x30, 0x3d, 0xa0, 0x9e, 0x20, 0x3d,
  0x6d, 0x97, 0x0b, 0xc0, 0x52, 0x7f, 0x07, 0xc0, 0xbe, 0xa0, 0xfa, 0xbf,
  0x40, 0x38, 0xd4, 0x3b, 0x20, 0xf5, 0x99, 0x3c, 0xd7, 0x15, 0x3d, 0xbe,
  0xc1, 0x26, 0xf2, 0xbf, 0xb6, 0xc6, 0xb5, 0xbd, 0xf0, 0x4d, 0xaf, 0x3d,
  0x8d, 0xee, 0xf1, 0xbf, 0xb1, 0x35, 0x02, 0xc0, 0xad, 0xf3, 0xf1, 0xbf,
  0x90, 0x40, 0x0b, 0xc0, 0xc0, 0xce, 0xf3, 0xbf, 0x1c, 0x7a, 0x15, 0x3e,
  0x2f, 0x42, 0x16, 0xc0, 0x31, 0x1a, 0x16, 0xc0, 0xcc, 0xac, 0xf4, 0xbf,
  0x92, 0x78, 0x1c, 0xc0, 0x46, 0x0f, 0xbe, 0xbd, 0x00, 0x00, 0x06, 0x00,
  0x08, 0x00, 0x04, 0x00, 0x06, 0x00, 0x00, 0x00, 0x04, 0x00, 0x00, 0x00,
  0x04, 0x00, 0x00, 0x00, 0xea, 0x11, 0x0a, 0xc0, 0xd4, 0xfb, 0xff, 0xff,
  0x0f, 0x00, 0x00, 0x00, 0x54, 0x4f, 0x43, 0x4f, 0x20, 0x43, 0x6f, 0x6e,
  0x76, 0x65, 0x72, 0x74, 0x65, 0x64, 0x2e, 0x00, 0x01, 0x00, 0x00, 0x00,
  0x10, 0x00, 0x00, 0x00, 0x0c, 0x00, 0x14, 0x00, 0x04, 0x00, 0x08, 0x00,
  0x0c, 0x00, 0x10, 0x00, 0x0c, 0x00, 0x00, 0x00, 0x20, 0x01, 0x00, 0x00,
  0x14, 0x01, 0x00, 0x00, 0x08, 0x01, 0x00, 0x00, 0x04, 0x00, 0x00, 0x00,
  0x04, 0x00, 0x00, 0x00, 0xc0, 0x00, 0x00, 0x00, 0x78, 0x00, 0x00, 0x00,
  0x34, 0x00, 0x00, 0x00, 0x10, 0x00, 0x00, 0x00, 0x00, 0x00, 0x0a, 0x00,
  0x10, 0x00, 0x04, 0x00, 0x08, 0x00, 0x0c, 0x00, 0x0a, 0x00, 0x00, 0x00,
  0x01, 0x00, 0x00, 0x00, 0x10, 0x00, 0x00, 0x00, 0x04, 0x00, 0x00, 0x00,
  0x01, 0x00, 0x00, 0x00, 0x05, 0x00, 0x00, 0x00, 0x01, 0x00, 0x00, 0x00,
  0x03, 0x00, 0x00, 0x00, 0xce, 0xff, 0xff, 0xff, 0x00, 0x00, 0x00, 0x08,
  0x18, 0x00, 0x00, 0x00, 0x0c, 0x00, 0x00, 0x00, 0x04, 0x00, 0x00, 0x00,
  0x68, 0xfc, 0xff, 0xff, 0x01, 0x00, 0x00, 0x00, 0x03, 0x00, 0x00, 0x00,
  0x03, 0x00, 0x00, 0x00, 0x02, 0x00, 0x00, 0x00, 0x06, 0x00, 0x00, 0x00,
  0x04, 0x00, 0x00, 0x00, 0x00, 0x00, 0x0e, 0x00, 0x14, 0x00, 0x00, 0x00,
  0x08, 0x00, 0x0c, 0x00, 0x07, 0x00, 0x10, 0x00, 0x0e, 0x00, 0x00, 0x00,
  0x00, 0x00, 0x00, 0x08, 0x1c, 0x00, 0x00, 0x00, 0x10, 0x00, 0x00, 0x00,
  0x04, 0x00, 0x00, 0x00, 0xba, 0xff, 0xff, 0xff, 0x00, 0x00, 0x00, 0x01,
  0x01, 0x00, 0x00, 0x00, 0x02, 0x00, 0x00, 0x00, 0x03, 0x00, 0x00, 0x00,
  0x01, 0x00, 0x00, 0x00, 0x0a, 0x00, 0x00, 0x00, 0x09, 0x00, 0x00, 0x00,
  0x00, 0x00, 0x0e, 0x00, 0x16, 0x00, 0x00, 0x00, 0x08, 0x00, 0x0c, 0x00,
  0x07, 0x00, 0x10, 0x00, 0x0e, 0x00, 0x00, 0x00, 0x00, 0x00, 0x00, 0x08,
  0x24, 0x00, 0x00, 0x00, 0x18, 0x00, 0x00, 0x00, 0x0c, 0x00, 0x00, 0x00,
  0x00, 0x00, 0x06, 0x00, 0x08, 0x00, 0x07, 0x00, 0x06, 0x00, 0x00, 0x00,
  0x00, 0x00, 0x00, 0x01, 0x01, 0x00, 0x00, 0x00, 0x01, 0x00, 0x00, 0x00,
  0x03, 0x00, 0x00, 0x00, 0x00, 0x00, 0x00, 0x00, 0x08, 0x00, 0x00, 0x00,
  0x07, 0x00, 0x00, 0x00, 0x01, 0x00, 0x00, 0x00, 0x05, 0x00, 0x00, 0x00,
  0x01, 0x00, 0x00, 0x00, 0x00, 0x00, 0x00, 0x00, 0x0b, 0x00, 0x00, 0x00,
  0x10, 0x03, 0x00, 0x00, 0xc0, 0x02, 0x00, 0x00, 0x84, 0x02, 0x00, 0x00,
  0x40, 0x02, 0x00, 0x00, 0xfc, 0x01, 0x00, 0x00, 0xbc, 0x01, 0x00, 0x00,
  0x68, 0x01, 0x00, 0x00, 0x24, 0x01, 0x00, 0x00, 0xd4, 0x00, 0x00, 0x00,
  0x90, 0x00, 0x00, 0x00, 0x14, 0x00, 0x00, 0x00, 0x00, 0x00, 0x0e, 0x00,
  0x18, 0x00, 0x08, 0x00, 0x07, 0x00, 0x0c, 0x00, 0x10, 0x00, 0x14, 0x00,
  0x0e, 0x00, 0x00, 0x00, 0x00, 0x00, 0x00, 0x09, 0x64, 0x00, 0x00, 0x00,
  0x03, 0x00, 0x00, 0x00, 0x34, 0x00, 0x00, 0x00, 0x10, 0x00, 0x00, 0x00,
  0x0c, 0x00, 0x0c, 0x00, 0x00, 0x00, 0x00, 0x00, 0x04, 0x00, 0x08, 0x00,
  0x0c, 0x00, 0x00, 0x00, 0x14, 0x00, 0x00, 0x00, 0x04, 0x00, 0x00, 0x00,
  0x01, 0x00, 0x00, 0x00, 0x00, 0x00, 0x00, 0x00, 0x00, 0x00, 0x00, 0x00,
  0x01, 0x00, 0x00, 0x00, 0x4d, 0x09, 0x99, 0x3c, 0x22, 0x00, 0x00, 0x00,
  0x6d, 0x6f, 0x64, 0x65, 0x6c, 0x2f, 0x70, 0x69, 0x2f, 0x66, 0x63, 0x31,
  0x2f, 0x6b, 0x65, 0x72, 0x6e, 0x65, 0x6c, 0x2f, 0x72, 0x65, 0x61, 0x64,
  0x2f, 0x74, 0x72, 0x61, 0x6e, 0x73, 0x70, 0x6f, 0x73, 0x65, 0x00, 0x00,
  0x02, 0x00, 0x00, 0x00, 0x40, 0x00, 0x00, 0x00, 0x40, 0x00, 0x00, 0x00,
  0xb2, 0xfd, 0xff, 0xff, 0x34, 0x00, 0x00, 0x00, 0x04, 0x00, 0x00, 0x00,
  0x0c, 0x00, 0x00, 0x00, 0x04, 0x00, 0x00, 0x00, 0xf0, 0xfd, 0xff, 0xff,
  0x18, 0x00, 0x00, 0x00, 0x6d, 0x6f, 0x64, 0x65, 0x6c, 0x2f, 0x70, 0x69,
  0x2f, 0x66, 0x63, 0x31, 0x2f, 0x4d, 0x61, 0x74, 0x4d, 0x75, 0x6c, 0x5f,
  0x62, 0x69, 0x61, 0x73, 0x00, 0x00, 0x00, 0x00, 0x01, 0x00, 0x00, 0x00,
  0x40, 0x00, 0x00, 0x00, 0xf2, 0xfd, 0xff, 0xff, 0x3c, 0x00, 0x00, 0x00,
  0x06, 0x00, 0x00, 0x00, 0x0c, 0x00, 0x00, 0x00, 0x04, 0x00, 0x00, 0x00,
  0x30, 0xfe, 0xff, 0xff, 0x22, 0x00, 0x00, 0x00, 0x6d, 0x6f, 0x64, 0x65,
  0x6c, 0x2f, 0x70, 0x69, 0x2f, 0x66, 0x63, 0x30, 0x2f, 0x6b, 0x65, 0x72,
  0x6e, 0x65, 0x6c, 0x2f, 0x72, 0x65, 0x61, 0x64, 0x2f, 0x74, 0x72, 0x61,
  0x6e, 0x73, 0x70, 0x6f, 0x73, 0x65, 0x00, 0x00, 0x02, 0x00, 0x00, 0x00,
  0x40, 0x00, 0x00, 0x00, 0x02, 0x00, 0x00, 0x00, 0x3e, 0xfe, 0xff, 0xff,
  0x34, 0x00, 0x00, 0x00, 0x05, 0x00, 0x00, 0x00, 0x0c, 0x00, 0x00, 0x00,
  0x04, 0x00, 0x00, 0x00, 0x7c, 0xfe, 0xff, 0xff, 0x18, 0x00, 0x00, 0x00,
  0x6d, 0x6f, 0x64, 0x65, 0x6c, 0x2f, 0x70, 0x69, 0x2f, 0x66, 0x63, 0x30,
  0x2f, 0x4d, 0x61, 0x74, 0x4d, 0x75, 0x6c, 0x5f, 0x62, 0x69, 0x61, 0x73,
  0x00, 0x00, 0x00, 0x00, 0x01, 0x00, 0x00, 0x00, 0x40, 0x00, 0x00, 0x00,
  0x7e, 0xfe, 0xff, 0xff, 0x40, 0x00, 0x00, 0x00, 0x02, 0x00, 0x00, 0x00,
  0x0c, 0x00, 0x00, 0x00, 0x04, 0x00, 0x00, 0x00, 0xbc, 0xfe, 0xff, 0xff,
  0x24, 0x00, 0x00, 0x00, 0x6d, 0x6f, 0x64, 0x65, 0x6c, 0x2f, 0x70, 0x69,
  0x2f, 0x64, 0x65, 0x6e, 0x73, 0x65, 0x2f, 0x6b, 0x65, 0x72, 0x6e, 0x65,
  0x6c, 0x2f, 0x72, 0x65, 0x61, 0x64, 0x2f, 0x74, 0x72, 0x61, 0x6e, 0x73,
  0x70, 0x6f, 0x73, 0x65, 0x00, 0x00, 0x00, 0x00, 0x02, 0x00, 0x00, 0x00,
  0x01, 0x00, 0x00, 0x00, 0x40, 0x00, 0x00, 0x00, 0xce, 0xfe, 0xff, 0xff,
  0x2c, 0x00, 0x00, 0x00, 0x07, 0x00, 0x00, 0x00, 0x0c, 0x00, 0x00, 0x00,
  0x04, 0x00, 0x00, 0x00, 0x0c, 0xff, 0xff, 0xff, 0x13, 0x00, 0x00, 0x00,
  0x6d, 0x6f, 0x64, 0x65, 0x6c, 0x2f, 0x70, 0x69, 0x2f, 0x64, 0x65, 0x6e,
  0x73, 0x65, 0x2f, 0x54, 0x61, 0x6e, 0x68, 0x00, 0x02, 0x00, 0x00, 0x00,
  0x01, 0x00, 0x00, 0x00, 0x01, 0x00, 0x00, 0x00, 0x0a, 0xff, 0xff, 0xff,
  0x34, 0x00, 0x00, 0x00, 0x01, 0x00, 0x00, 0x00, 0x0c, 0x00, 0x00, 0x00,
  0x04, 0x00, 0x00, 0x00, 0x48, 0xff, 0xff, 0xff, 0x1a, 0x00, 0x00, 0x00,
  0x6d, 0x6f, 0x64, 0x65, 0x6c, 0x2f, 0x70, 0x69, 0x2f, 0x64, 0x65, 0x6e,
  0x73, 0x65, 0x2f, 0x4d, 0x61, 0x74, 0x4d, 0x75, 0x6c, 0x5f, 0x62, 0x69,
  0x61, 0x73, 0x00, 0x00, 0x01, 0x00, 0x00, 0x00, 0x01, 0x00, 0x00, 0x00,
  0x4a, 0xff, 0xff, 0xff, 0x30, 0x00, 0x00, 0x00, 0x09, 0x00, 0x00, 0x00,
  0x0c, 0x00, 0x00, 0x00, 0x04, 0x00, 0x00, 0x00, 0x88, 0xff, 0xff, 0xff,
  0x16, 0x00, 0x00, 0x00, 0x6d, 0x6f, 0x64, 0x65, 0x6c, 0x2f, 0x70, 0x69,
  0x2f, 0x64, 0x65, 0x6e, 0x73, 0x65, 0x2f, 0x42, 0x69, 0x61, 0x73, 0x41,
  0x64, 0x64, 0x00, 0x00, 0x02, 0x00, 0x00, 0x00, 0x01, 0x00, 0x00, 0x00,
  0x01, 0x00, 0x00, 0x00, 0x8a, 0xff, 0xff, 0xff, 0x28, 0x00, 0x00, 0x00,
  0x0a, 0x00, 0x00, 0x00, 0x0c, 0x00, 0x00, 0x00, 0x04, 0x00, 0x00, 0x00,
  0xc8, 0xff, 0xff, 0xff, 0x0f, 0x00, 0x00, 0x00, 0x6d, 0x6f, 0x64, 0x65,
  0x6c, 0x2f, 0x70, 0x69, 0x2f, 0x52, 0x65, 0x6c, 0x75, 0x5f, 0x31, 0x00,
  0x02, 0x00, 0x00, 0x00, 0x01, 0x00, 0x00, 0x00, 0x40, 0x00, 0x00, 0x00,
  0xc2, 0xff, 0xff, 0xff, 0x2c, 0x00, 0x00, 0x00, 0x08, 0x00, 0x00, 0x00,
  0x10, 0x00, 0x00, 0x00, 0x08, 0x00, 0x00, 0x00, 0x04, 0x00, 0x04, 0x00,
  0x04, 0x00, 0x00, 0x00, 0x0d, 0x00, 0x00, 0x00, 0x6d, 0x6f, 0x64, 0x65,
  0x6c, 0x2f, 0x70, 0x69, 0x2f, 0x52, 0x65, 0x6c, 0x75, 0x00, 0x00, 0x00,
  0x02, 0x00, 0x00, 0x00, 0x01, 0x00, 0x00, 0x00, 0x40, 0x00, 0x00, 0x00,
  0x00, 0x00, 0x0e, 0x00, 0x14, 0x00, 0x04, 0x00, 0x00, 0x00, 0x08, 0x00,
  0x0c, 0x00, 0x10, 0x00, 0x0e, 0x00, 0x00, 0x00, 0x48, 0x00, 0x00, 0x00,
  0x0b, 0x00, 0x00, 0x00, 0x2c, 0x00, 0x00, 0x00, 0x0c, 0x00, 0x00, 0x00,
  0x08, 0x00, 0x0c, 0x00, 0x04, 0x00, 0x08, 0x00, 0x08, 0x00, 0x00, 0x00,
  0x10, 0x00, 0x00, 0x00, 0x04, 0x00, 0x00, 0x00, 0x01, 0x00, 0x00, 0x00,
  0x00, 0x00, 0x7f, 0x43, 0x01, 0x00, 0x00, 0x00, 0x00, 0x00, 0x00, 0x00,
  0x0e, 0x00, 0x00, 0x00, 0x69, 0x6e, 0x70, 0x75, 0x74, 0x2f, 0x69, 0x6e,
  0x70, 0x75, 0x74, 0x2f, 0x4f, 0x62, 0x00, 0x00, 0x02, 0x00, 0x00, 0x00,
  0x01, 0x00, 0x00, 0x00, 0x02, 0x00, 0x00, 0x00, 0x02, 0x00, 0x00, 0x00,
  0x20, 0x00, 0x00, 0x00, 0x0c, 0x00, 0x00, 0x00, 0x00, 0x00, 0x06, 0x00,
  0x06, 0x00, 0x05, 0x00, 0x06, 0x00, 0x00, 0x00, 0x00, 0x1c, 0x0a, 0x00,
  0x0c, 0x00, 0x07, 0x00, 0x00, 0x00, 0x08, 0x00, 0x0a, 0x00, 0x00, 0x00,
  0x00, 0x00, 0x00, 0x09, 0x03, 0x00, 0x00, 0x00
};
const int td3_agent_tflite_len = 6920;
