#include "ppo2_dummy_x.h"

// We need to keep the data array aligned on some architectures.
#ifdef __has_attribute
#define HAVE_ATTRIBUTE(x) __has_attribute(x)
#else
#define HAVE_ATTRIBUTE(x) 0
#endif
#if HAVE_ATTRIBUTE(aligned) || (defined(__GNUC__) && !defined(__clang__))
#define DATA_ALIGN_ATTRIBUTE __attribute__((aligned(4)))
#else
#define DATA_ALIGN_ATTRIBUTE
#endif


const unsigned char ppo2_dummy_tflite_x[] = {
  0x1c, 0x00, 0x00, 0x00, 0x54, 0x46, 0x4c, 0x33, 0x00, 0x00, 0x12, 0x00,
  0x1c, 0x00, 0x04, 0x00, 0x08, 0x00, 0x0c, 0x00, 0x10, 0x00, 0x14, 0x00,
  0x00, 0x00, 0x18, 0x00, 0x12, 0x00, 0x00, 0x00, 0x03, 0x00, 0x00, 0x00,
  0xbc, 0x0f, 0x00, 0x00, 0x08, 0x0b, 0x00, 0x00, 0xf0, 0x0a, 0x00, 0x00,
  0x34, 0x00, 0x00, 0x00, 0x04, 0x00, 0x00, 0x00, 0x01, 0x00, 0x00, 0x00,
  0x04, 0x00, 0x00, 0x00, 0xa0, 0xf0, 0xff, 0xff, 0x08, 0x00, 0x00, 0x00,
  0x0c, 0x00, 0x00, 0x00, 0x13, 0x00, 0x00, 0x00, 0x6d, 0x69, 0x6e, 0x5f,
  0x72, 0x75, 0x6e, 0x74, 0x69, 0x6d, 0x65, 0x5f, 0x76, 0x65, 0x72, 0x73,
  0x69, 0x6f, 0x6e, 0x00, 0x0d, 0x00, 0x00, 0x00, 0xb0, 0x0a, 0x00, 0x00,
  0x9c, 0x0a, 0x00, 0x00, 0x04, 0x0a, 0x00, 0x00, 0x74, 0x09, 0x00, 0x00,
  0x64, 0x05, 0x00, 0x00, 0x54, 0x01, 0x00, 0x00, 0x44, 0x00, 0x00, 0x00,
  0x3c, 0x00, 0x00, 0x00, 0x34, 0x00, 0x00, 0x00, 0x2c, 0x00, 0x00, 0x00,
  0x24, 0x00, 0x00, 0x00, 0x1c, 0x00, 0x00, 0x00, 0x04, 0x00, 0x00, 0x00,
  0x9a, 0xf5, 0xff, 0xff, 0x04, 0x00, 0x00, 0x00, 0x05, 0x00, 0x00, 0x00,
  0x31, 0x2e, 0x35, 0x2e, 0x30, 0x00, 0x00, 0x00, 0x58, 0xf1, 0xff, 0xff,
  0x5c, 0xf1, 0xff, 0xff, 0x60, 0xf1, 0xff, 0xff, 0x64, 0xf1, 0xff, 0xff,
  0x68, 0xf1, 0xff, 0xff, 0xc2, 0xf5, 0xff, 0xff, 0x04, 0x00, 0x00, 0x00,
  0x00, 0x01, 0x00, 0x00, 0x54, 0x90, 0xc4, 0xbd, 0xcb, 0x0a, 0xa2, 0x3d,
  0x2b, 0xd3, 0xd2, 0xbd, 0xb8, 0xc2, 0x24, 0xbe, 0x0a, 0x6c, 0x93, 0x3d,
  0x80, 0xb3, 0xa0, 0x3d, 0xd5, 0x61, 0x01, 0xbf, 0xc7, 0x3e, 0x88, 0x3e,
  0xd8, 0x90, 0x0d, 0x3d, 0x12, 0x7d, 0x70, 0x3e, 0xe6, 0xb1, 0xb1, 0x3e,
  0xfa, 0xc5, 0x55, 0xbd, 0x60, 0xf0, 0x60, 0x3e, 0x40, 0x82, 0xdf, 0xbd,
  0x90, 0x07, 0x31, 0xbd, 0xf6, 0xe9, 0xf4, 0x3d, 0x5f, 0xf5, 0xf3, 0xbd,
  0x8c, 0xde, 0xda, 0xbe, 0x58, 0xe0, 0xf7, 0xbe, 0x87, 0xc3, 0xc3, 0xbe,
  0x2e, 0x85, 0x0a, 0xbd, 0x9a, 0xb5, 0xc0, 0xbd, 0xdf, 0x0b, 0x20, 0xbe,
  0x07, 0x01, 0xa7, 0xbd, 0x67, 0xad, 0x02, 0x3f, 0xe3, 0x04, 0xe5, 0xbd,
  0x16, 0x9b, 0xd5, 0x3d, 0x0f, 0x7e, 0x80, 0xbe, 0x26, 0xfd, 0x08, 0xbe,
  0xde, 0xad, 0x85, 0xbd, 0xf0, 0x1a, 0x26, 0xbe, 0xf2, 0xa4, 0x8f, 0xbe,
  0x2a, 0xb0, 0x9f, 0x3d, 0x77, 0x15, 0xa9, 0xbe, 0x0f, 0xb2, 0xc3, 0xbe,
  0xe0, 0xf7, 0x54, 0xbe, 0x31, 0xe0, 0x2a, 0x3d, 0x89, 0x72, 0x85, 0xbe,
  0x61, 0x6e, 0x7e, 0xbc, 0x40, 0x5f, 0xa1, 0x3e, 0xa2, 0xa3, 0x54, 0xbd,
  0xd1, 0xb5, 0x29, 0x3e, 0x2c, 0x04, 0xc9, 0x3e, 0xf8, 0x50, 0xb1, 0xbe,
  0xdc, 0xe9, 0x22, 0x3e, 0x5f, 0xbf, 0x09, 0xbf, 0xe1, 0x3d, 0x57, 0x3e,
  0x24, 0xc9, 0x3c, 0x3d, 0x10, 0xc7, 0xc5, 0x3e, 0x99, 0x70, 0x03, 0xbe,
  0x7f, 0xad, 0x3d, 0x3e, 0x33, 0xd1, 0x02, 0x3e, 0xc2, 0xbc, 0x9b, 0x3c,
  0x78, 0xc8, 0xc8, 0x3e, 0xdd, 0x98, 0x0a, 0xbf, 0xcf, 0xca, 0x04, 0xbe,
  0x6a, 0xd3, 0xb9, 0xbd, 0x30, 0x18, 0xcc, 0xbe, 0xb0, 0x0f, 0xf5, 0xbd,
  0xeb, 0x97, 0xbd, 0xbe, 0x60, 0x78, 0x2a, 0xbe, 0x7c, 0x31, 0x49, 0x3e,
  0x71, 0x95, 0x65, 0xbe, 0xb5, 0x30, 0xae, 0xbd, 0xce, 0xf6, 0xff, 0xff,
  0x04, 0x00, 0x00, 0x00, 0x00, 0x04, 0x00, 0x00, 0xe6, 0xfe, 0x31, 0x05,
  0x3d, 0xd8, 0x47, 0x33, 0x33, 0xed, 0x1b, 0x0a, 0x19, 0x14, 0x3a, 0x09,
  0x52, 0x0c, 0xde, 0x3d, 0x20, 0x33, 0xd7, 0x41, 0x29, 0xea, 0xeb, 0x27,
  0xea, 0x15, 0x4b, 0x24, 0xb7, 0x00, 0x26, 0x16, 0x25, 0x0b, 0x04, 0x58,
  0x14, 0x0a, 0x30, 0xe2, 0xfe, 0xf4, 0x2d, 0xd6, 0x99, 0x22, 0x1f, 0x1f,
  0x1e, 0xcb, 0xef, 0x26, 0x15, 0x24, 0x12, 0xaf, 0x0d, 0x09, 0xba, 0x0a,
  0xc9, 0x37, 0xec, 0x1b, 0x35, 0x38, 0xaa, 0x0f, 0x3d, 0x28, 0xe8, 0xfc,
  0x09, 0x00, 0xa9, 0x10, 0xf1, 0x2e, 0x0b, 0x11, 0xd7, 0x49, 0xf7, 0xf1,
  0x3c, 0xf3, 0x39, 0x0b, 0xee, 0x37, 0x24, 0xde, 0xdd, 0xe1, 0xff, 0x13,
  0x0a, 0xe4, 0x1a, 0xfd, 0x17, 0x29, 0xcf, 0xc7, 0x1e, 0x43, 0xe3, 0x0f,
  0xee, 0xf2, 0x1a, 0x27, 0x35, 0x2a, 0x57, 0xd7, 0xbd, 0xfc, 0xe5, 0x2a,
  0x2d, 0x49, 0xce, 0x49, 0xee, 0xfe, 0xf6, 0x42, 0x08, 0x1b, 0xcf, 0xfc,
  0xed, 0xdb, 0xd3, 0xc8, 0xb7, 0xda, 0x51, 0xb7, 0xfc, 0x01, 0x2e, 0xfc,
  0x10, 0xfd, 0x2f, 0x0f, 0x16, 0xd6, 0xf3, 0x6b, 0xbc, 0xec, 0xfd, 0x04,
  0x10, 0x17, 0xde, 0xd9, 0xf8, 0xd3, 0x2d, 0x24, 0x36, 0xcd, 0xb9, 0x21,
  0xc7, 0xea, 0xee, 0x31, 0xed, 0x0f, 0x06, 0x11, 0x63, 0xb6, 0x2d, 0xf5,
  0x03, 0xfe, 0x47, 0x05, 0xee, 0x23, 0x20, 0xbe, 0xe1, 0x08, 0x3c, 0x72,
  0x04, 0xfc, 0x07, 0xef, 0x2b, 0xd9, 0x2a, 0x19, 0x1b, 0x1d, 0xd8, 0xff,
  0x07, 0xb7, 0x32, 0xc9, 0x1c, 0xcc, 0xf7, 0xe8, 0x16, 0xe7, 0x16, 0x26,
  0x5e, 0xdb, 0x1f, 0xe1, 0xe1, 0xd0, 0x0e, 0xfd, 0x40, 0xf2, 0xe8, 0xe4,
  0xd7, 0xc9, 0xf4, 0xb4, 0x0a, 0x0f, 0xc3, 0x20, 0x13, 0x0e, 0xbd, 0xff,
  0x44, 0xdd, 0xd9, 0xac, 0x47, 0xf2, 0xd8, 0xe3, 0xca, 0xd9, 0xe2, 0x07,
  0xa8, 0x02, 0xbe, 0x26, 0xfd, 0x51, 0x1f, 0x0f, 0xf2, 0xd4, 0xc1, 0xf9,
  0xfc, 0xdc, 0x23, 0x43, 0x1a, 0xb8, 0xcf, 0x14, 0xdc, 0xf5, 0xdc, 0x0b,
  0xce, 0xd4, 0x31, 0xd7, 0x16, 0xf6, 0xf6, 0x30, 0xfb, 0xa7, 0xdf, 0x49,
  0xca, 0x02, 0x34, 0xd1, 0x36, 0xf1, 0x23, 0xd2, 0xec, 0xfb, 0x27, 0x3c,
  0x11, 0x4b, 0x06, 0x0e, 0xbb, 0xf1, 0x03, 0xdf, 0x23, 0x55, 0x09, 0x0a,
  0xfc, 0x22, 0x01, 0xe2, 0xdb, 0xf4, 0x06, 0x07, 0x1c, 0x99, 0x2a, 0xf2,
  0x99, 0x11, 0xee, 0xfa, 0xfc, 0x2d, 0xe8, 0x13, 0x01, 0x0b, 0x38, 0x1c,
  0xab, 0xf6, 0x2d, 0x28, 0x2b, 0xcf, 0x53, 0xf0, 0xf0, 0xdd, 0xfd, 0xf9,
  0xfd, 0xd5, 0xe0, 0xef, 0x2c, 0xff, 0xfb, 0xd2, 0x0b, 0x11, 0xbb, 0x38,
  0x50, 0x2d, 0x3b, 0xc6, 0xaf, 0xdc, 0xe2, 0x2c, 0xd3, 0xb7, 0xe2, 0xdf,
  0x1d, 0xfd, 0xe6, 0x19, 0xfe, 0x26, 0x2e, 0xe5, 0x0b, 0xf9, 0x11, 0x24,
  0x0c, 0x0b, 0xf7, 0xf6, 0xd3, 0xd9, 0xeb, 0x57, 0xec, 0x03, 0x03, 0x1d,
  0x0a, 0x48, 0xdb, 0x0c, 0x01, 0x0a, 0xf2, 0x2d, 0x13, 0xbf, 0xcb, 0x1c,
  0x43, 0x41, 0x8d, 0xc6, 0x82, 0xe5, 0x1f, 0x95, 0x18, 0x2f, 0x0c, 0xbd,
  0x1f, 0xfb, 0x1d, 0x12, 0x03, 0xf9, 0x00, 0x0c, 0x19, 0x27, 0x37, 0x02,
  0xfd, 0xef, 0x1a, 0x0a, 0xc1, 0xf2, 0xdc, 0x19, 0xf9, 0xd3, 0x03, 0xc2,
  0xb3, 0xcf, 0xe6, 0x08, 0xf4, 0xc9, 0x1a, 0x12, 0xdb, 0xf3, 0xdb, 0x0a,
  0xc7, 0xfd, 0xc3, 0xc1, 0xf6, 0xc6, 0xfa, 0xcf, 0x09, 0x3c, 0xb8, 0x29,
  0xec, 0x57, 0xe4, 0x0d, 0xf6, 0x2b, 0x08, 0xcd, 0x21, 0x23, 0x2b, 0x30,
  0x1e, 0x32, 0x35, 0xe3, 0xfb, 0x03, 0x0b, 0xfd, 0x09, 0xf5, 0xee, 0xf4,
  0x2b, 0xa9, 0x1d, 0x2d, 0xf4, 0xfc, 0x38, 0x02, 0xfa, 0x06, 0xd3, 0xb1,
  0xa4, 0x40, 0xe7, 0xb5, 0x10, 0xfe, 0x28, 0xdb, 0x00, 0xe5, 0xd5, 0xa7,
  0x35, 0x14, 0xf5, 0xa3, 0xb2, 0xf2, 0xfb, 0xe6, 0x07, 0xd2, 0xc2, 0x33,
  0xf3, 0xea, 0x01, 0x4c, 0x15, 0xef, 0x0f, 0xe4, 0x55, 0x11, 0x06, 0xf1,
  0xfc, 0x36, 0x98, 0x1e, 0x37, 0xe3, 0xfa, 0xbd, 0x21, 0x33, 0x44, 0x0a,
  0xf5, 0x4f, 0x21, 0x03, 0x14, 0xf5, 0xe2, 0xe3, 0x2f, 0xef, 0xe0, 0x23,
  0xde, 0x0c, 0x2c, 0x15, 0xcf, 0xf1, 0xbb, 0xf2, 0xfb, 0xfd, 0xb4, 0xd3,
  0x40, 0xf2, 0x23, 0xec, 0xe1, 0xf8, 0x51, 0xf7, 0x27, 0x81, 0x04, 0x06,
  0xee, 0xd0, 0x09, 0xe2, 0x09, 0x13, 0x31, 0xf6, 0x45, 0xff, 0x02, 0x25,
  0x31, 0x34, 0xf5, 0x0d, 0x25, 0x10, 0x0e, 0xe5, 0x4a, 0x2b, 0x4e, 0x23,
  0xff, 0xef, 0x24, 0xd2, 0xa4, 0x39, 0xeb, 0x08, 0xc6, 0x0c, 0xec, 0xb7,
  0xb8, 0xe5, 0xed, 0xe5, 0xdb, 0xce, 0xeb, 0x1d, 0x01, 0x2b, 0x1f, 0x0a,
  0xd5, 0x16, 0x37, 0x07, 0xc7, 0x17, 0x05, 0xdc, 0xc3, 0x44, 0xf1, 0xdd,
  0x26, 0x0d, 0x38, 0x41, 0xdc, 0x0b, 0xd8, 0x99, 0x39, 0xfc, 0x0f, 0x2d,
  0x1e, 0xf3, 0x07, 0xf9, 0xe8, 0x3e, 0x35, 0xec, 0x00, 0x1b, 0x1d, 0xeb,
  0xc3, 0xf5, 0x51, 0xcd, 0x13, 0x08, 0xfd, 0xea, 0x07, 0xe7, 0x1b, 0xc6,
  0xe6, 0x07, 0x1a, 0x11, 0x17, 0x49, 0xa3, 0xaa, 0x09, 0xaf, 0x3e, 0xfd,
  0xf7, 0x0a, 0xd3, 0xe9, 0xf5, 0xe2, 0x56, 0xeb, 0x18, 0x18, 0x01, 0xe2,
  0x13, 0xfd, 0x01, 0x60, 0xbe, 0x0e, 0x1b, 0x18, 0xda, 0xcb, 0xc8, 0xf6,
  0xf9, 0x37, 0x35, 0xdc, 0x2c, 0x3c, 0x40, 0x15, 0xe2, 0xe6, 0xd4, 0x32,
  0xe6, 0x46, 0x08, 0x10, 0x0d, 0xe2, 0xf7, 0x02, 0xcf, 0x62, 0x01, 0x16,
  0xa9, 0xe1, 0x21, 0x46, 0x04, 0xee, 0x24, 0x44, 0x06, 0xe6, 0xcd, 0xb3,
  0x07, 0x20, 0xbd, 0x15, 0x20, 0xf7, 0x1a, 0x00, 0x2e, 0xc9, 0xfb, 0x03,
  0xee, 0x1c, 0x21, 0x1b, 0x20, 0x39, 0xfb, 0xea, 0x16, 0xea, 0xcb, 0x51,
  0xad, 0xce, 0x0b, 0x24, 0x09, 0x0e, 0xdd, 0x4a, 0x12, 0xe3, 0xe4, 0x45,
  0xd9, 0xb4, 0xde, 0xe0, 0xf7, 0xd9, 0xdd, 0xff, 0xd3, 0x1a, 0x00, 0xc2,
  0x10, 0x00, 0x19, 0x41, 0xc9, 0x0e, 0xcd, 0xf9, 0xf5, 0x04, 0x4b, 0x05,
  0x21, 0xdd, 0xe4, 0x28, 0x33, 0xcd, 0xe1, 0xd4, 0xdb, 0x32, 0x1b, 0x75,
  0x1b, 0x02, 0x16, 0x1d, 0x38, 0x45, 0x55, 0xda, 0xe2, 0x49, 0xc0, 0x07,
  0x0a, 0xcd, 0xcb, 0xc2, 0x29, 0x44, 0xf5, 0xf9, 0x1d, 0xd1, 0xf4, 0x1a,
  0xfc, 0x39, 0x2a, 0x19, 0x1a, 0xe2, 0x00, 0x24, 0x0b, 0x53, 0x2d, 0xcb,
  0xf2, 0x04, 0xf1, 0xe8, 0xf5, 0xb1, 0xe6, 0xdc, 0x2d, 0x10, 0xf7, 0x29,
  0x08, 0xeb, 0x3c, 0x07, 0xde, 0xd4, 0xc0, 0x21, 0x0f, 0x4f, 0x13, 0x47,
  0xed, 0x31, 0xc9, 0x2e, 0x05, 0xca, 0xef, 0xd4, 0xd4, 0x5b, 0xf0, 0x38,
  0xb3, 0x15, 0x41, 0xf2, 0xf0, 0x49, 0xfb, 0xe5, 0x34, 0xdf, 0xfe, 0x41,
  0x27, 0xe9, 0xfb, 0xf0, 0x1e, 0x06, 0x42, 0x2f, 0x1a, 0x23, 0x06, 0xd9,
  0x3e, 0xdc, 0xfb, 0x0e, 0x51, 0x21, 0xe8, 0xc8, 0xce, 0xc8, 0xf6, 0xf5,
  0xfa, 0x14, 0x2b, 0x2c, 0xd0, 0x0d, 0x4c, 0x16, 0x3a, 0x51, 0xdf, 0x13,
  0xd7, 0x1f, 0x1c, 0xd4, 0x25, 0xf6, 0x37, 0xec, 0xfc, 0x33, 0xc7, 0xda,
  0xf3, 0x2d, 0x37, 0x0d, 0x1a, 0xfb, 0xc1, 0xee, 0xf2, 0x4e, 0x1f, 0xf6,
  0x10, 0xf6, 0x24, 0xdd, 0x04, 0x2a, 0x20, 0x08, 0x73, 0x19, 0xc4, 0xda,
  0x37, 0xc3, 0xea, 0xef, 0xe0, 0x57, 0xea, 0x20, 0xcb, 0x10, 0x2a, 0xd3,
  0xd5, 0xbd, 0x34, 0x04, 0x05, 0x11, 0xd1, 0xe8, 0xad, 0x1f, 0xb8, 0x54,
  0x0d, 0x15, 0x2b, 0x0f, 0xf7, 0x19, 0xe6, 0x19, 0x01, 0xdf, 0x2f, 0x06,
  0xda, 0xfa, 0xff, 0xff, 0x04, 0x00, 0x00, 0x00, 0x00, 0x04, 0x00, 0x00,
  0x3c, 0x04, 0xe9, 0xff, 0xf7, 0x18, 0xff, 0xf8, 0x56, 0xdc, 0x18, 0x04,
  0x2c, 0x5a, 0xe5, 0x02, 0xfd, 0xf8, 0xb8, 0xd0, 0xe2, 0xf1, 0xdf, 0x33,
  0x10, 0x00, 0xf1, 0x27, 0xe5, 0x2a, 0x65, 0xfa, 0xf0, 0xf0, 0xf3, 0xdf,
  0x20, 0xe0, 0x3b, 0xd9, 0xe6, 0xed, 0xb8, 0xf7, 0x42, 0x1a, 0x2e, 0x01,
  0x5a, 0xed, 0xc3, 0x37, 0xe7, 0x3b, 0x1f, 0x0e, 0xd5, 0xfd, 0xdc, 0x05,
  0x07, 0xcc, 0x17, 0x36, 0x37, 0xd6, 0x52, 0x24, 0x41, 0x37, 0xab, 0x17,
  0xf5, 0xb2, 0xf4, 0xfc, 0xed, 0x0b, 0x15, 0xee, 0x39, 0xf3, 0x1b, 0x02,
  0xc2, 0x11, 0x07, 0x29, 0x0c, 0x1f, 0x1b, 0xec, 0xed, 0x13, 0xd4, 0x26,
  0x22, 0x20, 0xeb, 0x76, 0x07, 0x1c, 0x1a, 0xf3, 0x0e, 0x15, 0xe1, 0xdc,
  0xda, 0x32, 0x0b, 0xf9, 0xf3, 0x09, 0xbf, 0x11, 0xfc, 0x3d, 0x1d, 0xab,
  0x20, 0x22, 0x3c, 0xed, 0x3a, 0x04, 0xfb, 0xed, 0x05, 0x0e, 0xcf, 0xe8,
  0x15, 0x0b, 0xe9, 0x0b, 0xdc, 0xab, 0x38, 0x9d, 0x4d, 0xe7, 0xab, 0xfa,
  0x11, 0xe6, 0xef, 0x13, 0x0a, 0xe3, 0x0c, 0xf1, 0x1d, 0x05, 0x06, 0x09,
  0x4c, 0xe3, 0xe3, 0xde, 0xd2, 0x30, 0xfa, 0xd4, 0x74, 0x01, 0x14, 0x27,
  0x12, 0xd8, 0x1a, 0x3b, 0xf1, 0x15, 0x1e, 0xc2, 0x1f, 0x00, 0x03, 0xeb,
  0x29, 0xcc, 0x23, 0xb2, 0xec, 0x02, 0x35, 0x0a, 0xfd, 0x15, 0x2b, 0x02,
  0x23, 0xe7, 0x25, 0x30, 0x26, 0xcb, 0xd6, 0xd4, 0x08, 0x1b, 0x46, 0x1e,
  0xdf, 0xf7, 0xea, 0x06, 0x1c, 0xe7, 0xe4, 0x42, 0x4e, 0xec, 0x0e, 0xe6,
  0x2f, 0x2a, 0xa7, 0x31, 0xf1, 0xe3, 0x15, 0x17, 0xf4, 0x34, 0xa9, 0xd6,
  0xdc, 0xef, 0xed, 0xf8, 0xc8, 0xdf, 0x09, 0xd7, 0x97, 0x0c, 0x14, 0xec,
  0x3c, 0xf6, 0x25, 0xea, 0xef, 0x34, 0xec, 0xff, 0x38, 0x2f, 0xd4, 0xf9,
  0xe6, 0x25, 0x28, 0x0a, 0xe7, 0xed, 0x12, 0xb6, 0xf7, 0x3f, 0xe6, 0xe1,
  0x2a, 0x33, 0x36, 0x23, 0x0f, 0xd9, 0xf0, 0xdb, 0xff, 0x26, 0xf1, 0x00,
  0xd0, 0x4d, 0x2b, 0xe6, 0x4c, 0xd8, 0xf9, 0x02, 0x3e, 0x15, 0x08, 0x3b,
  0x10, 0xc1, 0xf7, 0xe4, 0x5b, 0xcb, 0x09, 0xda, 0xb8, 0x13, 0x11, 0x14,
  0xf5, 0x06, 0x10, 0xd5, 0xb4, 0xd4, 0xd1, 0xda, 0xee, 0x26, 0xd1, 0x24,
  0x2b, 0xf3, 0x0e, 0xcc, 0x08, 0xf4, 0x05, 0xc2, 0xe7, 0x22, 0xdb, 0xfd,
  0x1c, 0xe3, 0x04, 0x0f, 0x64, 0xe6, 0x0d, 0x13, 0x1f, 0xe4, 0x09, 0xfa,
  0xdd, 0xec, 0x17, 0x42, 0xb3, 0x36, 0xd7, 0xdf, 0x17, 0x2a, 0xf8, 0x13,
  0xb0, 0xdb, 0xc7, 0xd3, 0x1c, 0xce, 0xb3, 0x2b, 0xee, 0xf0, 0x19, 0xe7,
  0xdc, 0xd9, 0x42, 0x2f, 0x15, 0x1b, 0xe0, 0xfc, 0xc2, 0xf0, 0x3c, 0xf0,
  0xe3, 0x0f, 0x30, 0xe3, 0xc9, 0x15, 0x13, 0xf3, 0xeb, 0xf6, 0x04, 0x68,
  0x30, 0x16, 0x00, 0xcf, 0xeb, 0x01, 0x12, 0x37, 0x07, 0x0a, 0x0e, 0x2f,
  0xf1, 0x2c, 0xe7, 0x2d, 0x2c, 0xf2, 0xcd, 0xbf, 0x18, 0xfb, 0xc4, 0xd7,
  0x21, 0xfd, 0x02, 0xcc, 0xf7, 0xad, 0xac, 0x37, 0xbe, 0xef, 0x28, 0x1f,
  0x01, 0xb5, 0xe8, 0x1e, 0x11, 0xd4, 0xf4, 0xf4, 0xb9, 0xe8, 0xbf, 0x38,
  0x02, 0xef, 0xef, 0xfa, 0xc0, 0x09, 0xee, 0xe7, 0x00, 0xb4, 0x23, 0x04,
  0x11, 0xd0, 0x4e, 0x1b, 0xfa, 0xa6, 0x13, 0x16, 0xb3, 0xea, 0x2e, 0xf2,
  0xf6, 0xcb, 0x13, 0x1d, 0x05, 0xed, 0x03, 0xd2, 0x49, 0xf6, 0xe9, 0xcf,
  0x06, 0x16, 0x0d, 0xc8, 0x0c, 0xdb, 0x0e, 0x3b, 0xda, 0x27, 0xd3, 0xb7,
  0x40, 0xf8, 0x07, 0xe6, 0x02, 0x1a, 0xdb, 0xf1, 0x0e, 0xb8, 0xbb, 0x14,
  0x0d, 0xc9, 0x0a, 0x0e, 0xd4, 0x26, 0x25, 0xcd, 0x4c, 0x4c, 0xf4, 0xd1,
  0xee, 0x0c, 0xe8, 0x12, 0x0d, 0xc2, 0x3a, 0xe8, 0xe8, 0x0f, 0xe7, 0x09,
  0xdc, 0x2c, 0xbe, 0x28, 0xe8, 0x1d, 0x0f, 0x47, 0xec, 0x1d, 0xf6, 0xe8,
  0x10, 0xdb, 0xec, 0xf4, 0xd9, 0x07, 0x56, 0x24, 0xd2, 0x15, 0xeb, 0x08,
  0x0f, 0xa1, 0x11, 0xa9, 0x19, 0xfd, 0x0a, 0xf8, 0x29, 0x37, 0x46, 0xaf,
  0x1b, 0xf6, 0xfe, 0x01, 0xca, 0xdc, 0xbd, 0x18, 0x1b, 0x13, 0x03, 0xf1,
  0xc6, 0xd4, 0x12, 0xe0, 0xd0, 0x07, 0xb5, 0xb0, 0xf8, 0x07, 0xfe, 0xd1,
  0xf3, 0x40, 0x3f, 0x22, 0xf3, 0xfe, 0x30, 0xb7, 0x0e, 0x15, 0x45, 0xe7,
  0x25, 0xde, 0x15, 0xfd, 0x30, 0xda, 0x35, 0xc0, 0x0a, 0x17, 0xfb, 0x2b,
  0x12, 0x23, 0x45, 0xf0, 0xf4, 0xbf, 0x28, 0xfe, 0x07, 0xf0, 0x1b, 0xee,
  0x14, 0xc8, 0x0f, 0x41, 0x1b, 0x09, 0x42, 0xfa, 0x0c, 0x34, 0xe7, 0x40,
  0x20, 0x1f, 0x29, 0x0f, 0x2a, 0x67, 0x1e, 0x15, 0xd2, 0x08, 0xf7, 0xc6,
  0x1a, 0x38, 0x03, 0xca, 0x84, 0x01, 0x0a, 0x2b, 0xf2, 0x25, 0xe9, 0xf8,
  0xe4, 0xc1, 0x13, 0x22, 0x27, 0xec, 0x11, 0x32, 0xe6, 0x25, 0xaf, 0xe9,
  0x21, 0x09, 0xf8, 0x09, 0x12, 0x3b, 0xe4, 0xbe, 0xdf, 0x1c, 0x02, 0x0d,
  0xf4, 0xf8, 0xac, 0x34, 0x3f, 0xf4, 0x23, 0x06, 0x37, 0xef, 0xf9, 0x15,
  0xd2, 0xce, 0x03, 0x14, 0x15, 0x2c, 0xf9, 0xc7, 0x1b, 0x0a, 0x1f, 0x6b,
  0x12, 0xeb, 0xfb, 0x34, 0x28, 0xf3, 0xc6, 0x11, 0xdc, 0x1d, 0x1b, 0xf4,
  0x12, 0xb6, 0xd2, 0xc9, 0x07, 0x17, 0xad, 0x0d, 0x2a, 0x37, 0xc4, 0x14,
  0xf7, 0xea, 0x23, 0xaa, 0xea, 0xf9, 0x34, 0xe9, 0x1d, 0x32, 0xec, 0x1e,
  0x13, 0x27, 0xd1, 0x00, 0x11, 0x55, 0x46, 0x1c, 0xe2, 0xe5, 0x48, 0x35,
  0xef, 0xc8, 0xef, 0x20, 0xfc, 0xfa, 0xd5, 0x9a, 0xd0, 0xf3, 0xfa, 0x0c,
  0x04, 0x18, 0x12, 0x2a, 0x13, 0xed, 0xbb, 0xef, 0x15, 0x0c, 0xf7, 0x17,
  0xfc, 0xe9, 0xdc, 0x46, 0xfe, 0xdc, 0xe9, 0x0f, 0x08, 0x0a, 0xf4, 0x1e,
  0x41, 0x18, 0x1d, 0xd3, 0x35, 0x4d, 0x46, 0xfb, 0xe6, 0xd2, 0xd5, 0xec,
  0x37, 0xdf, 0xd2, 0xb7, 0x28, 0xe1, 0x21, 0xed, 0xfa, 0xbc, 0x0d, 0xd8,
  0xcc, 0xe5, 0x21, 0x10, 0x4e, 0xd5, 0xf9, 0xfa, 0xe0, 0xfd, 0x4d, 0x08,
  0xe4, 0xc0, 0x0a, 0x06, 0xfc, 0xcb, 0x1e, 0x06, 0x1b, 0x4f, 0xfa, 0xda,
  0x5c, 0xf9, 0x08, 0x03, 0xed, 0x07, 0xf1, 0x29, 0x1a, 0x4a, 0x1f, 0x18,
  0xe7, 0x0b, 0xf2, 0x3b, 0x1b, 0xf5, 0x03, 0x40, 0x11, 0x81, 0x33, 0x03,
  0x02, 0x16, 0xc3, 0xef, 0x0f, 0xe2, 0xd8, 0x1f, 0x35, 0x30, 0x0f, 0xfb,
  0xfe, 0xe8, 0xef, 0x1f, 0x16, 0xff, 0xe8, 0x46, 0x28, 0x38, 0xfc, 0xa3,
  0x19, 0xca, 0x15, 0xd8, 0xfe, 0xbd, 0xea, 0xb2, 0x0c, 0x0e, 0x2c, 0xdf,
  0xea, 0xea, 0xc2, 0xd6, 0xc8, 0x09, 0x0b, 0x1f, 0xeb, 0xbe, 0xe7, 0xf9,
  0xfd, 0x1a, 0x1c, 0x21, 0x11, 0x24, 0xba, 0x14, 0x01, 0xeb, 0x8a, 0xd1,
  0x22, 0xf1, 0x10, 0x25, 0x31, 0x09, 0xf5, 0x20, 0x26, 0x45, 0x3d, 0xdf,
  0xdb, 0xff, 0x28, 0x09, 0xd5, 0xcd, 0x29, 0xfb, 0x22, 0x39, 0x4e, 0x31,
  0xdd, 0x07, 0x09, 0xc4, 0xf5, 0x49, 0x04, 0x17, 0xda, 0x30, 0x2d, 0xeb,
  0xef, 0xfe, 0x14, 0xf5, 0x3c, 0x13, 0xd5, 0x42, 0xe1, 0xc3, 0x0a, 0xfa,
  0xdd, 0xeb, 0x12, 0x0b, 0x06, 0xfc, 0xfa, 0x0e, 0x02, 0x20, 0x1a, 0xf0,
  0xf5, 0xfa, 0xed, 0xbf, 0x0c, 0x1f, 0xef, 0xdd, 0xe5, 0x13, 0x90, 0xf4,
  0x9a, 0x54, 0xe7, 0x35, 0x48, 0xff, 0xf6, 0x16, 0x46, 0x11, 0x04, 0xfd,
  0x07, 0xd9, 0x21, 0x49, 0xc3, 0x1f, 0x02, 0x22, 0x24, 0xa1, 0x0a, 0x37,
  0x0c, 0x29, 0xdf, 0xef, 0xb7, 0xe9, 0x1d, 0xf3, 0x1c, 0x48, 0x0f, 0x1e,
  0x00, 0x1e, 0x2a, 0xfa, 0xe6, 0xfe, 0xff, 0xff, 0x04, 0x00, 0x00, 0x00,
  0x80, 0x00, 0x00, 0x00, 0x00, 0x00, 0x00, 0x00, 0x00, 0x00, 0x00, 0x00,
  0x00, 0x00, 0x00, 0x00, 0x00, 0x00, 0x00, 0x00, 0x00, 0x00, 0x00, 0x00,
  0x00, 0x00, 0x00, 0x00, 0x00, 0x00, 0x00, 0x00, 0x00, 0x00, 0x00, 0x00,
  0x00, 0x00, 0x00, 0x00, 0x00, 0x00, 0x00, 0x00, 0x00, 0x00, 0x00, 0x00,
  0x00, 0x00, 0x00, 0x00, 0x00, 0x00, 0x00, 0x00, 0x00, 0x00, 0x00, 0x00,
  0x00, 0x00, 0x00, 0x00, 0x00, 0x00, 0x00, 0x00, 0x00, 0x00, 0x00, 0x00,
  0x00, 0x00, 0x00, 0x00, 0x00, 0x00, 0x00, 0x00, 0x00, 0x00, 0x00, 0x00,
  0x00, 0x00, 0x00, 0x00, 0x00, 0x00, 0x00, 0x00, 0x00, 0x00, 0x00, 0x00,
  0x00, 0x00, 0x00, 0x00, 0x00, 0x00, 0x00, 0x00, 0x00, 0x00, 0x00, 0x00,
  0x00, 0x00, 0x00, 0x00, 0x00, 0x00, 0x00, 0x00, 0x00, 0x00, 0x00, 0x00,
  0x00, 0x00, 0x00, 0x00, 0x00, 0x00, 0x00, 0x00, 0x00, 0x00, 0x00, 0x00,
  0x72, 0xff, 0xff, 0xff, 0x04, 0x00, 0x00, 0x00, 0x80, 0x00, 0x00, 0x00,
  0x3a, 0x07, 0x43, 0x3a, 0x84, 0xe5, 0x9a, 0xbb, 0x91, 0xd9, 0x81, 0x3a,
  0xef, 0x92, 0x92, 0x3a, 0x15, 0x69, 0x22, 0x39, 0xb4, 0x69, 0x8f, 0xba,
  0x23, 0x67, 0xe8, 0x3a, 0xe0, 0x29, 0x2f, 0xbb, 0xfe, 0x4a, 0x32, 0xbb,
  0xd0, 0x9b, 0xdf, 0x3a, 0xdc, 0xe8, 0xec, 0xba, 0x2c, 0x3d, 0xa1, 0x39,
  0x63, 0x6a, 0xc8, 0xb9, 0x8f, 0x08, 0xac, 0x3a, 0xc3, 0x81, 0x3e, 0x3b,
  0xda, 0x0e, 0x1e, 0xba, 0xd4, 0xdc, 0xe9, 0x3a, 0x3a, 0x0b, 0xa6, 0x3a,
  0x78, 0x43, 0x97, 0xb9, 0xe3, 0xb6, 0xed, 0xba, 0x71, 0xd4, 0xdf, 0x39,
  0x1d, 0x6a, 0x8a, 0x39, 0x26, 0x07, 0x58, 0xbb, 0x90, 0x59, 0x5b, 0xbb,
  0xef, 0x7d, 0xa1, 0xb9, 0xd0, 0xa2, 0x12, 0x3a, 0x5a, 0xeb, 0xa0, 0x3a,
  0xfe, 0x3f, 0x78, 0xba, 0xb2, 0xe4, 0x9a, 0xba, 0x0a, 0x4e, 0x6a, 0x3a,
  0xb3, 0x04, 0x67, 0x38, 0x49, 0xb0, 0xf5, 0x3a, 0x00, 0x00, 0x06, 0x00,
  0x08, 0x00, 0x04, 0x00, 0x06, 0x00, 0x00, 0x00, 0x04, 0x00, 0x00, 0x00,
  0x04, 0x00, 0x00, 0x00, 0x00, 0x00, 0x00, 0x00, 0xc0, 0xfb, 0xff, 0xff,
  0x0f, 0x00, 0x00, 0x00, 0x54, 0x4f, 0x43, 0x4f, 0x20, 0x43, 0x6f, 0x6e,
  0x76, 0x65, 0x72, 0x74, 0x65, 0x64, 0x2e, 0x00, 0x01, 0x00, 0x00, 0x00,
  0x10, 0x00, 0x00, 0x00, 0x0c, 0x00, 0x14, 0x00, 0x04, 0x00, 0x08, 0x00,
  0x0c, 0x00, 0x10, 0x00, 0x0c, 0x00, 0x00, 0x00, 0x28, 0x01, 0x00, 0x00,
  0x1c, 0x01, 0x00, 0x00, 0x10, 0x01, 0x00, 0x00, 0x04, 0x00, 0x00, 0x00,
  0x04, 0x00, 0x00, 0x00, 0xc8, 0x00, 0x00, 0x00, 0x80, 0x00, 0x00, 0x00,
  0x38, 0x00, 0x00, 0x00, 0x04, 0x00, 0x00, 0x00, 0x9a, 0xff, 0xff, 0xff,
  0x00, 0x00, 0x00, 0x08, 0x18, 0x00, 0x00, 0x00, 0x0c, 0x00, 0x00, 0x00,
  0x04, 0x00, 0x00, 0x00, 0x28, 0xfc, 0xff, 0xff, 0x01, 0x00, 0x00, 0x00,
  0x05, 0x00, 0x00, 0x00, 0x03, 0x00, 0x00, 0x00, 0x03, 0x00, 0x00, 0x00,
  0x06, 0x00, 0x00, 0x00, 0x04, 0x00, 0x00, 0x00, 0xca, 0xff, 0xff, 0xff,
  0x00, 0x00, 0x00, 0x08, 0x1c, 0x00, 0x00, 0x00, 0x10, 0x00, 0x00, 0x00,
  0x04, 0x00, 0x00, 0x00, 0x76, 0xff, 0xff, 0xff, 0x00, 0x00, 0x00, 0x01,
  0x01, 0x00, 0x00, 0x00, 0x03, 0x00, 0x00, 0x00, 0x03, 0x00, 0x00, 0x00,
  0x02, 0x00, 0x00, 0x00, 0x0a, 0x00, 0x00, 0x00, 0x09, 0x00, 0x00, 0x00,
  0x00, 0x00, 0x0e, 0x00, 0x14, 0x00, 0x00, 0x00, 0x08, 0x00, 0x0c, 0x00,
  0x07, 0x00, 0x10, 0x00, 0x0e, 0x00, 0x00, 0x00, 0x00, 0x00, 0x00, 0x08,
  0x1c, 0x00, 0x00, 0x00, 0x10, 0x00, 0x00, 0x00, 0x04, 0x00, 0x00, 0x00,
  0xba, 0xff, 0xff, 0xff, 0x00, 0x00, 0x00, 0x01, 0x01, 0x00, 0x00, 0x00,
  0x02, 0x00, 0x00, 0x00, 0x03, 0x00, 0x00, 0x00, 0x01, 0x00, 0x00, 0x00,
  0x08, 0x00, 0x00, 0x00, 0x09, 0x00, 0x00, 0x00, 0x00, 0x00, 0x0e, 0x00,
  0x16, 0x00, 0x00, 0x00, 0x08, 0x00, 0x0c, 0x00, 0x07, 0x00, 0x10, 0x00,
  0x0e, 0x00, 0x00, 0x00, 0x00, 0x00, 0x00, 0x08, 0x24, 0x00, 0x00, 0x00,
  0x18, 0x00, 0x00, 0x00, 0x0c, 0x00, 0x00, 0x00, 0x00, 0x00, 0x06, 0x00,
  0x08, 0x00, 0x07, 0x00, 0x06, 0x00, 0x00, 0x00, 0x00, 0x00, 0x00, 0x01,
  0x01, 0x00, 0x00, 0x00, 0x01, 0x00, 0x00, 0x00, 0x03, 0x00, 0x00, 0x00,
  0x00, 0x00, 0x00, 0x00, 0x07, 0x00, 0x00, 0x00, 0x09, 0x00, 0x00, 0x00,
  0x01, 0x00, 0x00, 0x00, 0x05, 0x00, 0x00, 0x00, 0x01, 0x00, 0x00, 0x00,
  0x00, 0x00, 0x00, 0x00, 0x0b, 0x00, 0x00, 0x00, 0x18, 0x03, 0x00, 0x00,
  0xcc, 0x02, 0x00, 0x00, 0x90, 0x02, 0x00, 0x00, 0x54, 0x02, 0x00, 0x00,
  0x14, 0x02, 0x00, 0x00, 0xd8, 0x01, 0x00, 0x00, 0x90, 0x01, 0x00, 0x00,
  0x44, 0x01, 0x00, 0x00, 0xc8, 0x00, 0x00, 0x00, 0x74, 0x00, 0x00, 0x00,
  0x04, 0x00, 0x00, 0x00, 0x52, 0xff, 0xff, 0xff, 0x00, 0x00, 0x00, 0x09,
  0x58, 0x00, 0x00, 0x00, 0x04, 0x00, 0x00, 0x00, 0x2c, 0x00, 0x00, 0x00,
  0x04, 0x00, 0x00, 0x00, 0x44, 0xff, 0xff, 0xff, 0x18, 0x00, 0x00, 0x00,
  0x04, 0x00, 0x00, 0x00, 0x01, 0x00, 0x00, 0x00, 0x00, 0x00, 0x00, 0x00,
  0x00, 0x00, 0x00, 0x00, 0x00, 0x00, 0x00, 0x00, 0x01, 0x00, 0x00, 0x00,
  0x65, 0x36, 0xcb, 0x3b, 0x1d, 0x00, 0x00, 0x00, 0x6d, 0x6f, 0x64, 0x65,
  0x6c, 0x2f, 0x70, 0x69, 0x5f, 0x66, 0x63, 0x32, 0x2f, 0x77, 0x2f, 0x72,
  0x65, 0x61, 0x64, 0x2f, 0x74, 0x72, 0x61, 0x6e, 0x73, 0x70, 0x6f, 0x73,
  0x65, 0x00, 0x00, 0x00, 0x02, 0x00, 0x00, 0x00, 0x20, 0x00, 0x00, 0x00,
  0x20, 0x00, 0x00, 0x00, 0x8e, 0xfd, 0xff, 0xff, 0x34, 0x00, 0x00, 0x00,
  0x03, 0x00, 0x00, 0x00, 0x0c, 0x00, 0x00, 0x00, 0x04, 0x00, 0x00, 0x00,
  0xc8, 0xfd, 0xff, 0xff, 0x18, 0x00, 0x00, 0x00, 0x6d, 0x6f, 0x64, 0x65,
  0x6c, 0x2f, 0x70, 0x69, 0x5f, 0x66, 0x63, 0x32, 0x2f, 0x4d, 0x61, 0x74,
  0x4d, 0x75, 0x6c, 0x5f, 0x62, 0x69, 0x61, 0x73, 0x00, 0x00, 0x00, 0x00,
  0x01, 0x00, 0x00, 0x00, 0x20, 0x00, 0x00, 0x00, 0x00, 0x00, 0x0e, 0x00,
  0x18, 0x00, 0x08, 0x00, 0x07, 0x00, 0x0c, 0x00, 0x10, 0x00, 0x14, 0x00,
  0x0e, 0x00, 0x00, 0x00, 0x00, 0x00, 0x00, 0x09, 0x64, 0x00, 0x00, 0x00,
  0x05, 0x00, 0x00, 0x00, 0x38, 0x00, 0x00, 0x00, 0x10, 0x00, 0x00, 0x00,
  0x0c, 0x00, 0x0c, 0x00, 0x00, 0x00, 0x00, 0x00, 0x04, 0x00, 0x08, 0x00,
  0x0c, 0x00, 0x00, 0x00, 0x18, 0x00, 0x00, 0x00, 0x04, 0x00, 0x00, 0x00,
  0x01, 0x00, 0x00, 0x00, 0x00, 0x00, 0x00, 0x00, 0x00, 0x00, 0x00, 0x00,
  0x00, 0x00, 0x00, 0x00, 0x01, 0x00, 0x00, 0x00, 0xe8, 0xaa, 0xc1, 0x3b,
  0x1d, 0x00, 0x00, 0x00, 0x6d, 0x6f, 0x64, 0x65, 0x6c, 0x2f, 0x70, 0x69,
  0x5f, 0x66, 0x63, 0x31, 0x2f, 0x77, 0x2f, 0x72, 0x65, 0x61, 0x64, 0x2f,
  0x74, 0x72, 0x61, 0x6e, 0x73, 0x70, 0x6f, 0x73, 0x65, 0x00, 0x00, 0x00,
  0x02, 0x00, 0x00, 0x00, 0x20, 0x00, 0x00, 0x00, 0x20, 0x00, 0x00, 0x00,
  0x56, 0xfe, 0xff, 0xff, 0x38, 0x00, 0x00, 0x00, 0x06, 0x00, 0x00, 0x00,
  0x0c, 0x00, 0x00, 0x00, 0x04, 0x00, 0x00, 0x00, 0x90, 0xfe, 0xff, 0xff,
  0x1d, 0x00, 0x00, 0x00, 0x6d, 0x6f, 0x64, 0x65, 0x6c, 0x2f, 0x70, 0x69,
  0x5f, 0x66, 0x63, 0x30, 0x2f, 0x77, 0x2f, 0x72, 0x65, 0x61, 0x64, 0x2f,
  0x74, 0x72, 0x61, 0x6e, 0x73, 0x70, 0x6f, 0x73, 0x65, 0x00, 0x00, 0x00,
  0x02, 0x00, 0x00, 0x00, 0x20, 0x00, 0x00, 0x00, 0x02, 0x00, 0x00, 0x00,
  0x9e, 0xfe, 0xff, 0xff, 0x34, 0x00, 0x00, 0x00, 0x02, 0x00, 0x00, 0x00,
  0x0c, 0x00, 0x00, 0x00, 0x04, 0x00, 0x00, 0x00, 0xd8, 0xfe, 0xff, 0xff,
  0x19, 0x00, 0x00, 0x00, 0x6d, 0x6f, 0x64, 0x65, 0x6c, 0x2f, 0x70, 0x69,
  0x2f, 0x77, 0x2f, 0x72, 0x65, 0x61, 0x64, 0x2f, 0x74, 0x72, 0x61, 0x6e,
  0x73, 0x70, 0x6f, 0x73, 0x65, 0x00, 0x00, 0x00, 0x02, 0x00, 0x00, 0x00,
  0x01, 0x00, 0x00, 0x00, 0x20, 0x00, 0x00, 0x00, 0xe2, 0xfe, 0xff, 0xff,
  0x28, 0x00, 0x00, 0x00, 0x07, 0x00, 0x00, 0x00, 0x0c, 0x00, 0x00, 0x00,
  0x04, 0x00, 0x00, 0x00, 0x1c, 0xff, 0xff, 0xff, 0x0c, 0x00, 0x00, 0x00,
  0x6d, 0x6f, 0x64, 0x65, 0x6c, 0x2f, 0x70, 0x69, 0x2f, 0x61, 0x64, 0x64,
  0x00, 0x00, 0x00, 0x00, 0x02, 0x00, 0x00, 0x00, 0x01, 0x00, 0x00, 0x00,
  0x01, 0x00, 0x00, 0x00, 0x1a, 0xff, 0xff, 0xff, 0x30, 0x00, 0x00, 0x00,
  0x01, 0x00, 0x00, 0x00, 0x0c, 0x00, 0x00, 0x00, 0x04, 0x00, 0x00, 0x00,
  0x54, 0xff, 0xff, 0xff, 0x14, 0x00, 0x00, 0x00, 0x6d, 0x6f, 0x64, 0x65,
  0x6c, 0x2f, 0x70, 0x69, 0x2f, 0x4d, 0x61, 0x74, 0x4d, 0x75, 0x6c, 0x5f,
  0x62, 0x69, 0x61, 0x73, 0x00, 0x00, 0x00, 0x00, 0x01, 0x00, 0x00, 0x00,
  0x01, 0x00, 0x00, 0x00, 0x56, 0xff, 0xff, 0xff, 0x28, 0x00, 0x00, 0x00,
  0x08, 0x00, 0x00, 0x00, 0x0c, 0x00, 0x00, 0x00, 0x04, 0x00, 0x00, 0x00,
  0x90, 0xff, 0xff, 0xff, 0x0c, 0x00, 0x00, 0x00, 0x6d, 0x6f, 0x64, 0x65,
  0x6c, 0x2f, 0x52, 0x65, 0x6c, 0x75, 0x5f, 0x34, 0x00, 0x00, 0x00, 0x00,
  0x02, 0x00, 0x00, 0x00, 0x01, 0x00, 0x00, 0x00, 0x20, 0x00, 0x00, 0x00,
  0x8e, 0xff, 0xff, 0xff, 0x28, 0x00, 0x00, 0x00, 0x0a, 0x00, 0x00, 0x00,
  0x0c, 0x00, 0x00, 0x00, 0x04, 0x00, 0x00, 0x00, 0xc8, 0xff, 0xff, 0xff,
  0x0c, 0x00, 0x00, 0x00, 0x6d, 0x6f, 0x64, 0x65, 0x6c, 0x2f, 0x52, 0x65,
  0x6c, 0x75, 0x5f, 0x32, 0x00, 0x00, 0x00, 0x00, 0x02, 0x00, 0x00, 0x00,
  0x01, 0x00, 0x00, 0x00, 0x20, 0x00, 0x00, 0x00, 0xc6, 0xff, 0xff, 0xff,
  0x28, 0x00, 0x00, 0x00, 0x0b, 0x00, 0x00, 0x00, 0x10, 0x00, 0x00, 0x00,
  0x08, 0x00, 0x00, 0x00, 0x04, 0x00, 0x04, 0x00, 0x04, 0x00, 0x00, 0x00,
  0x0a, 0x00, 0x00, 0x00, 0x6d, 0x6f, 0x64, 0x65, 0x6c, 0x2f, 0x52, 0x65,
  0x6c, 0x75, 0x00, 0x00, 0x02, 0x00, 0x00, 0x00, 0x01, 0x00, 0x00, 0x00,
  0x20, 0x00, 0x00, 0x00, 0x00, 0x00, 0x0e, 0x00, 0x14, 0x00, 0x04, 0x00,
  0x00, 0x00, 0x08, 0x00, 0x0c, 0x00, 0x10, 0x00, 0x0e, 0x00, 0x00, 0x00,
  0x44, 0x00, 0x00, 0x00, 0x09, 0x00, 0x00, 0x00, 0x2c, 0x00, 0x00, 0x00,
  0x0c, 0x00, 0x00, 0x00, 0x08, 0x00, 0x0c, 0x00, 0x04, 0x00, 0x08, 0x00,
  0x08, 0x00, 0x00, 0x00, 0x10, 0x00, 0x00, 0x00, 0x04, 0x00, 0x00, 0x00,
  0x01, 0x00, 0x00, 0x00, 0x00, 0x00, 0x7f, 0x43, 0x01, 0x00, 0x00, 0x00,
  0x00, 0x00, 0x00, 0x00, 0x08, 0x00, 0x00, 0x00, 0x69, 0x6e, 0x70, 0x75,
  0x74, 0x2f, 0x4f, 0x62, 0x00, 0x00, 0x00, 0x00, 0x02, 0x00, 0x00, 0x00,
  0x01, 0x00, 0x00, 0x00, 0x02, 0x00, 0x00, 0x00, 0x01, 0x00, 0x00, 0x00,
  0x10, 0x00, 0x00, 0x00, 0x00, 0x00, 0x0a, 0x00, 0x0c, 0x00, 0x07, 0x00,
  0x00, 0x00, 0x08, 0x00, 0x0a, 0x00, 0x00, 0x00, 0x00, 0x00, 0x00, 0x09,
  0x03, 0x00, 0x00, 0x00
};
const int ppo2_dummy_tflite_x_len = 4096;
